#ifndef MODEL_25HZ_H
#define MODEL_25HZ_H

const unsigned char model_25hz_tflite[] = {
  0x20, 0x00, 0x00, 0x00, 0x54, 0x46, 0x4c, 0x33,
  0x00, 0x00, 0x00, 0x00, 0x14, 0x00, 0x20, 0x00,
  0x1c, 0x00, 0x18, 0x00, 0x14, 0x00, 0x10, 0x00,
  0x0c, 0x00, 0x00, 0x00, 0x08, 0x00, 0x04, 0x00,
  0x14, 0x00, 0x00, 0x00, 0x1c, 0x00, 0x00, 0x00,
  0x8c, 0x00, 0x00, 0x00, 0x0c, 0x01, 0x00, 0x00,
  0xcc, 0x1c, 0x00, 0x00, 0xdc, 0x1c, 0x00, 0x00,
  0xf8, 0x38, 0x00, 0x00, 0x03, 0x00, 0x00, 0x00,
  0x01, 0x00, 0x00, 0x00, 0x04, 0x00, 0x00, 0x00,
  0xfa, 0xe0, 0xff, 0xff, 0x0c, 0x00, 0x00, 0x00,
  0x1c, 0x00, 0x00, 0x00, 0x3c, 0x00, 0x00, 0x00,
  0x0f, 0x00, 0x00, 0x00, 0x73, 0x65, 0x72, 0x76,
  0x69, 0x6e, 0x67, 0x5f, 0x64, 0x65, 0x66, 0x61,
  0x75, 0x6c, 0x74, 0x00, 0x01, 0x00, 0x00, 0x00,
  0x04, 0x00, 0x00, 0x00, 0x68, 0xff, 0xff, 0xff,
  0x1b, 0x00, 0x00, 0x00, 0x04, 0x00, 0x00, 0x00,
  0x08, 0x00, 0x00, 0x00, 0x6f, 0x75, 0x74, 0x70,
  0x75, 0x74, 0x5f, 0x30, 0x00, 0x00, 0x00, 0x00,
  0x01, 0x00, 0x00, 0x00, 0x04, 0x00, 0x00, 0x00,
  0xda, 0xe2, 0xff, 0xff, 0x04, 0x00, 0x00, 0x00,
  0x0f, 0x00, 0x00, 0x00, 0x6b, 0x65, 0x72, 0x61,
  0x73, 0x5f, 0x74, 0x65, 0x6e, 0x73, 0x6f, 0x72,
  0x5f, 0x34, 0x34, 0x00, 0x03, 0x00, 0x00, 0x00,
  0x5c, 0x00, 0x00, 0x00, 0x2c, 0x00, 0x00, 0x00,
  0x04, 0x00, 0x00, 0x00, 0xb8, 0xff, 0xff, 0xff,
  0x1f, 0x00, 0x00, 0x00, 0x04, 0x00, 0x00, 0x00,
  0x13, 0x00, 0x00, 0x00, 0x43, 0x4f, 0x4e, 0x56,
  0x45, 0x52, 0x53, 0x49, 0x4f, 0x4e, 0x5f, 0x4d,
  0x45, 0x54, 0x41, 0x44, 0x41, 0x54, 0x41, 0x00,
  0xdc, 0xff, 0xff, 0xff, 0x1e, 0x00, 0x00, 0x00,
  0x04, 0x00, 0x00, 0x00, 0x13, 0x00, 0x00, 0x00,
  0x6d, 0x69, 0x6e, 0x5f, 0x72, 0x75, 0x6e, 0x74,
  0x69, 0x6d, 0x65, 0x5f, 0x76, 0x65, 0x72, 0x73,
  0x69, 0x6f, 0x6e, 0x00, 0x08, 0x00, 0x0c, 0x00,
  0x08, 0x00, 0x04, 0x00, 0x08, 0x00, 0x00, 0x00,
  0x1d, 0x00, 0x00, 0x00, 0x04, 0x00, 0x00, 0x00,
  0x13, 0x00, 0x00, 0x00, 0x6d, 0x69, 0x6e, 0x5f,
  0x72, 0x75, 0x6e, 0x74, 0x69, 0x6d, 0x65, 0x5f,
  0x76, 0x65, 0x72, 0x73, 0x69, 0x6f, 0x6e, 0x00,
  0x20, 0x00, 0x00, 0x00, 0xbc, 0x1b, 0x00, 0x00,
  0xb4, 0x1b, 0x00, 0x00, 0xa0, 0x1b, 0x00, 0x00,
  0x84, 0x1b, 0x00, 0x00, 0x68, 0x1b, 0x00, 0x00,
  0x54, 0x1b, 0x00, 0x00, 0x3c, 0x1b, 0x00, 0x00,
  0x0c, 0x1b, 0x00, 0x00, 0xbc, 0x1a, 0x00, 0x00,
  0xac, 0x18, 0x00, 0x00, 0x1c, 0x18, 0x00, 0x00,
  0x0c, 0x14, 0x00, 0x00, 0x7c, 0x13, 0x00, 0x00,
  0x6c, 0x04, 0x00, 0x00, 0xfc, 0x03, 0x00, 0x00,
  0x1c, 0x01, 0x00, 0x00, 0x14, 0x01, 0x00, 0x00,
  0x0c, 0x01, 0x00, 0x00, 0x04, 0x01, 0x00, 0x00,
  0xfc, 0x00, 0x00, 0x00, 0xf4, 0x00, 0x00, 0x00,
  0xec, 0x00, 0x00, 0x00, 0xe4, 0x00, 0x00, 0x00,
  0xdc, 0x00, 0x00, 0x00, 0xd4, 0x00, 0x00, 0x00,
  0xcc, 0x00, 0x00, 0x00, 0xc4, 0x00, 0x00, 0x00,
  0xbc, 0x00, 0x00, 0x00, 0xb4, 0x00, 0x00, 0x00,
  0x94, 0x00, 0x00, 0x00, 0x74, 0x00, 0x00, 0x00,
  0x04, 0x00, 0x00, 0x00, 0xfe, 0xe3, 0xff, 0xff,
  0x04, 0x00, 0x00, 0x00, 0x60, 0x00, 0x00, 0x00,
  0x0c, 0x00, 0x00, 0x00, 0x08, 0x00, 0x0e, 0x00,
  0x08, 0x00, 0x04, 0x00, 0x08, 0x00, 0x00, 0x00,
  0x10, 0x00, 0x00, 0x00, 0x28, 0x00, 0x00, 0x00,
  0x00, 0x00, 0x06, 0x00, 0x08, 0x00, 0x04, 0x00,
  0x06, 0x00, 0x00, 0x00, 0x04, 0x00, 0x00, 0x00,
  0x01, 0x00, 0x00, 0x00, 0xeb, 0x03, 0x00, 0x00,
  0x0c, 0x00, 0x18, 0x00, 0x14, 0x00, 0x10, 0x00,
  0x0c, 0x00, 0x04, 0x00, 0x0c, 0x00, 0x00, 0x00,
  0x43, 0x5c, 0xb0, 0x71, 0x60, 0xb1, 0xd9, 0x1f,
  0x02, 0x00, 0x00, 0x00, 0x02, 0x00, 0x00, 0x00,
  0x04, 0x00, 0x00, 0x00, 0x06, 0x00, 0x00, 0x00,
  0x32, 0x2e, 0x31, 0x39, 0x2e, 0x30, 0x00, 0x00,
  0x6a, 0xe4, 0xff, 0xff, 0x04, 0x00, 0x00, 0x00,
  0x10, 0x00, 0x00, 0x00, 0x00, 0x00, 0x00, 0x00,
  0x00, 0x00, 0x00, 0x00, 0x00, 0x00, 0x00, 0x00,
  0x00, 0x00, 0x00, 0x00, 0x86, 0xe4, 0xff, 0xff,
  0x04, 0x00, 0x00, 0x00, 0x10, 0x00, 0x00, 0x00,
  0x31, 0x2e, 0x31, 0x34, 0x2e, 0x30, 0x00, 0x00,
  0x00, 0x00, 0x00, 0x00, 0x00, 0x00, 0x00, 0x00,
  0x70, 0xc9, 0xff, 0xff, 0x74, 0xc9, 0xff, 0xff,
  0x78, 0xc9, 0xff, 0xff, 0x7c, 0xc9, 0xff, 0xff,
  0x80, 0xc9, 0xff, 0xff, 0x84, 0xc9, 0xff, 0xff,
  0x88, 0xc9, 0xff, 0xff, 0x8c, 0xc9, 0xff, 0xff,
  0x90, 0xc9, 0xff, 0xff, 0x94, 0xc9, 0xff, 0xff,
  0x98, 0xc9, 0xff, 0xff, 0x9c, 0xc9, 0xff, 0xff,
  0xa0, 0xc9, 0xff, 0xff, 0xd6, 0xe4, 0xff, 0xff,
  0x04, 0x00, 0x00, 0x00, 0xd0, 0x02, 0x00, 0x00,
  0xe6, 0xaa, 0xc0, 0x51, 0xfe, 0xe1, 0x6a, 0xff,
  0xac, 0x28, 0x50, 0xef, 0x00, 0xc2, 0x81, 0x08,
  0xcd, 0xcc, 0x6f, 0x91, 0x10, 0x14, 0xe7, 0x10,
  0x5c, 0xbb, 0x96, 0xf3, 0xb7, 0xa4, 0x01, 0x12,
  0x25, 0x58, 0x45, 0x27, 0xc1, 0xfa, 0x00, 0x29,
  0x45, 0xf0, 0xfa, 0xfb, 0xd3, 0x7b, 0xd9, 0x01,
  0xfa, 0xc9, 0x07, 0x7f, 0xde, 0xfd, 0xf4, 0x0e,
  0xd1, 0x69, 0xd6, 0x21, 0x75, 0x10, 0x72, 0x0e,
  0x65, 0x2f, 0x6a, 0x81, 0x74, 0x10, 0x45, 0x16,
  0xd9, 0xdd, 0xfb, 0x17, 0xf5, 0x01, 0xc4, 0x07,
  0xdc, 0xdb, 0x0a, 0xd9, 0xed, 0xfe, 0x5b, 0x15,
  0x10, 0xd6, 0x81, 0x59, 0xba, 0x47, 0x0f, 0x00,
  0x12, 0xf5, 0xb2, 0x10, 0x21, 0xf5, 0x4e, 0xf6,
  0xf0, 0x14, 0xfc, 0x02, 0x18, 0xbb, 0xeb, 0xd9,
  0x0a, 0xe1, 0xe9, 0xa4, 0x13, 0xad, 0xda, 0x03,
  0x29, 0x81, 0x1c, 0xd3, 0x32, 0xf2, 0x8a, 0xd4,
  0xaa, 0x2b, 0x35, 0xfc, 0x38, 0x18, 0xba, 0xd1,
  0x14, 0x00, 0x0a, 0x12, 0xfe, 0x44, 0xca, 0xff,
  0x12, 0x20, 0xe3, 0xc0, 0xba, 0xd4, 0x1e, 0xd2,
  0xc0, 0xd1, 0xc6, 0x2e, 0x13, 0xaf, 0xdd, 0xd9,
  0x04, 0xe5, 0x17, 0xd9, 0xf6, 0x17, 0x0f, 0x1f,
  0xe9, 0xc8, 0x38, 0xf7, 0x27, 0xfa, 0xf3, 0xc1,
  0x7f, 0x2b, 0x31, 0xc7, 0xf0, 0xcc, 0x33, 0x00,
  0xf0, 0x03, 0x01, 0x2d, 0xc6, 0x30, 0xee, 0x01,
  0x23, 0xf8, 0xe9, 0x51, 0xe0, 0x03, 0xc3, 0x47,
  0xee, 0xe9, 0x49, 0x04, 0x28, 0x81, 0xe3, 0x9a,
  0x24, 0xfa, 0x0a, 0x70, 0xe5, 0x07, 0xb4, 0xfd,
  0x81, 0xbf, 0xc6, 0x07, 0x46, 0x00, 0xf6, 0x87,
  0x44, 0xd6, 0xdc, 0xf6, 0x76, 0xe4, 0x1a, 0x1a,
  0xdf, 0x07, 0xd0, 0x3c, 0xc4, 0xd8, 0x69, 0x04,
  0x1a, 0x3e, 0x2d, 0x86, 0x7f, 0xac, 0x39, 0x23,
  0x14, 0xc0, 0x18, 0xd7, 0x01, 0x27, 0xf5, 0xc9,
  0x2e, 0x06, 0x06, 0xff, 0xe7, 0xe4, 0x5b, 0xb8,
  0x10, 0xe0, 0x0f, 0xf6, 0x35, 0x21, 0xf6, 0x16,
  0x81, 0x76, 0x2a, 0xb7, 0x39, 0x3d, 0xea, 0x10,
  0x88, 0xcc, 0x22, 0x36, 0xb2, 0x64, 0x89, 0xce,
  0xf1, 0xd4, 0x36, 0xb8, 0xeb, 0x94, 0x56, 0x45,
  0x69, 0x2d, 0x00, 0x9f, 0x3d, 0x98, 0x7f, 0x72,
  0xd4, 0x8e, 0x2b, 0xf3, 0x1d, 0x22, 0x3e, 0xfa,
  0x29, 0xa3, 0x27, 0xef, 0xc3, 0xa6, 0x22, 0x8e,
  0xfd, 0x38, 0xcd, 0x95, 0xd3, 0xa8, 0xb7, 0x0d,
  0xc9, 0xcb, 0x24, 0xf3, 0x2c, 0x3d, 0xbe, 0xdc,
  0x1d, 0xf8, 0xf4, 0xfb, 0xe9, 0x4f, 0x81, 0x1d,
  0xcd, 0x17, 0x1a, 0x3d, 0xf3, 0xf5, 0xb5, 0x21,
  0xbc, 0x01, 0x3c, 0x2f, 0x0c, 0xb1, 0x5e, 0x39,
  0x1f, 0xeb, 0xd5, 0x1e, 0xdf, 0xfa, 0x38, 0x97,
  0x08, 0xc6, 0xb2, 0xd0, 0x93, 0xf1, 0x68, 0x95,
  0x61, 0x01, 0xec, 0xd4, 0xb1, 0x20, 0x70, 0x92,
  0x17, 0x7f, 0xaf, 0x6e, 0x8a, 0xdf, 0x33, 0xa7,
  0xbb, 0x81, 0xd9, 0xe6, 0x03, 0x06, 0x28, 0xf5,
  0x28, 0xed, 0xa1, 0xe9, 0xce, 0x05, 0xdf, 0xe2,
  0x05, 0xcf, 0xbc, 0x20, 0x1f, 0x06, 0xd9, 0x03,
  0xac, 0x44, 0x40, 0xdb, 0xf2, 0x3f, 0x9c, 0xb0,
  0x81, 0xb9, 0x20, 0x08, 0xa3, 0xb9, 0xd9, 0x50,
  0x02, 0xf3, 0xef, 0x1d, 0xc0, 0xa1, 0xc4, 0xf4,
  0x4e, 0x1c, 0xf1, 0xa2, 0x0a, 0x45, 0x55, 0xf4,
  0xd6, 0xb4, 0xa2, 0x1b, 0x44, 0xb2, 0x1b, 0x07,
  0x81, 0x94, 0xf5, 0x2a, 0x35, 0x04, 0x27, 0x8d,
  0x2f, 0xfe, 0x8b, 0x07, 0x70, 0xe2, 0x42, 0xcd,
  0x0b, 0xfe, 0xab, 0x76, 0x4c, 0xcd, 0x1b, 0xef,
  0x2c, 0xf8, 0x3d, 0x01, 0x1e, 0xdd, 0xc4, 0x1d,
  0x0f, 0xc0, 0x22, 0x20, 0xf5, 0x00, 0x41, 0x56,
  0xe0, 0x01, 0x41, 0xb3, 0xd4, 0xb8, 0xe3, 0x02,
  0x4f, 0x0d, 0x7f, 0x26, 0x47, 0x21, 0x22, 0x15,
  0xba, 0x18, 0xf9, 0x79, 0x30, 0xfc, 0x18, 0x2d,
  0x28, 0x7f, 0x55, 0xe2, 0xf2, 0xf9, 0x01, 0x17,
  0x2e, 0xba, 0xc9, 0x0a, 0x34, 0x0d, 0x21, 0xe6,
  0xb0, 0x0e, 0x98, 0x04, 0xc5, 0xee, 0x32, 0x0d,
  0x5e, 0x2f, 0xf0, 0xc0, 0xf7, 0xc7, 0xe5, 0xdf,
  0x34, 0xee, 0xc5, 0x2b, 0xff, 0xe7, 0x28, 0x36,
  0x4b, 0xc1, 0x09, 0x39, 0x7f, 0x37, 0xbb, 0x31,
  0x88, 0xe8, 0xdc, 0xf6, 0x0d, 0xf9, 0xaa, 0xf7,
  0xc6, 0x4f, 0xf8, 0x35, 0xc0, 0xff, 0x1d, 0xcf,
  0x08, 0xcb, 0x1a, 0xfd, 0xf9, 0x81, 0x22, 0x18,
  0x3e, 0x00, 0xe8, 0xf4, 0x12, 0x95, 0x5b, 0xfd,
  0x08, 0xc6, 0x63, 0x05, 0xf6, 0xc4, 0xe8, 0xed,
  0x53, 0xe8, 0x46, 0x21, 0x47, 0xc1, 0x2a, 0x33,
  0x02, 0x81, 0xde, 0x9a, 0xc7, 0x24, 0xf8, 0x10,
  0x53, 0xa8, 0xbc, 0x9c, 0x2f, 0xcf, 0xaf, 0x87,
  0x81, 0x35, 0xf0, 0xff, 0xd6, 0xb8, 0x24, 0xff,
  0xf5, 0xfe, 0x7a, 0x2c, 0xa9, 0xe1, 0x15, 0x00,
  0x7a, 0x0d, 0x0c, 0x5d, 0xfd, 0xf8, 0xe7, 0x97,
  0xa1, 0xa9, 0x08, 0x06, 0x97, 0x99, 0x00, 0xbf,
  0xdf, 0x17, 0x08, 0xc9, 0x41, 0xfa, 0x30, 0x02,
  0xe9, 0xfe, 0xf7, 0xe1, 0x5a, 0xd7, 0xde, 0x51,
  0xe3, 0xc5, 0x10, 0x2f, 0x7f, 0x35, 0x4f, 0x5b,
  0xa6, 0x10, 0x62, 0x42, 0x57, 0xf9, 0x9e, 0xe9,
  0x40, 0x1a, 0x43, 0xe8, 0x81, 0xe7, 0x25, 0xfb,
  0x54, 0xbf, 0x1d, 0xfa, 0x8b, 0x0b, 0x63, 0x08,
  0xf3, 0xff, 0x9a, 0x27, 0x27, 0x24, 0x0c, 0xf5,
  0xb2, 0xe7, 0xff, 0xff, 0x04, 0x00, 0x00, 0x00,
  0x60, 0x00, 0x00, 0x00, 0xcf, 0xfc, 0xff, 0xff,
  0x8a, 0xff, 0xff, 0xff, 0x7c, 0xfe, 0xff, 0xff,
  0x41, 0xfa, 0xff, 0xff, 0xe1, 0xf7, 0xff, 0xff,
  0x1f, 0xff, 0xff, 0xff, 0xc2, 0xf7, 0xff, 0xff,
  0xcd, 0xf4, 0xff, 0xff, 0x68, 0xff, 0xff, 0xff,
  0x2e, 0xf9, 0xff, 0xff, 0xac, 0xfc, 0xff, 0xff,
  0xe7, 0x00, 0x00, 0x00, 0xca, 0xf3, 0xff, 0xff,
  0xb9, 0xfb, 0xff, 0xff, 0xf7, 0x00, 0x00, 0x00,
  0x55, 0xef, 0xff, 0xff, 0x8f, 0xfe, 0xff, 0xff,
  0xd0, 0x03, 0x00, 0x00, 0xb8, 0x00, 0x00, 0x00,
  0xeb, 0xf3, 0xff, 0xff, 0x92, 0xff, 0xff, 0xff,
  0x65, 0xfb, 0xff, 0xff, 0x5d, 0xfe, 0xff, 0xff,
  0x74, 0xfe, 0xff, 0xff, 0x1e, 0xe8, 0xff, 0xff,
  0x04, 0x00, 0x00, 0x00, 0x00, 0x0f, 0x00, 0x00,
  0xf5, 0x04, 0xff, 0xb1, 0xc7, 0xf9, 0xaa, 0xbc,
  0x0e, 0xbd, 0xf5, 0x0a, 0xae, 0x9f, 0xf3, 0xc6,
  0xe1, 0x07, 0x18, 0xbe, 0x0e, 0xd2, 0x03, 0xc4,
  0xf6, 0x1a, 0x04, 0x98, 0xd1, 0x08, 0x97, 0xaf,
  0x05, 0xcf, 0xf3, 0x0d, 0xc1, 0xd5, 0x05, 0xcd,
  0xef, 0xfc, 0x09, 0xbd, 0x0d, 0xd5, 0x0b, 0xd9,
  0x0e, 0x1d, 0x07, 0x81, 0xc3, 0x0f, 0xa2, 0xcd,
  0x00, 0xb5, 0xf7, 0x11, 0xfb, 0xfd, 0xff, 0xa1,
  0xd5, 0x02, 0x0c, 0xba, 0x01, 0xec, 0x0a, 0xd8,
  0x05, 0x26, 0x02, 0x87, 0xd3, 0x0c, 0xa9, 0xe1,
  0xe9, 0xc5, 0x19, 0x00, 0x26, 0x0e, 0xfc, 0xc5,
  0xdb, 0x01, 0xf9, 0xc2, 0x03, 0xe6, 0xf3, 0xeb,
  0x05, 0x19, 0xfe, 0xde, 0x07, 0xfb, 0xb6, 0xfd,
  0xe2, 0xca, 0x14, 0x15, 0x2b, 0x20, 0x14, 0xdb,
  0xf5, 0x1d, 0x1b, 0xd4, 0xfd, 0xe4, 0x15, 0xf2,
  0x23, 0x0f, 0xdb, 0x3e, 0x1f, 0x32, 0x02, 0xe5,
  0xbc, 0xbb, 0x17, 0xe1, 0xff, 0x4b, 0x31, 0xbb,
  0xa2, 0x1a, 0xd1, 0xe9, 0x19, 0x20, 0xe0, 0x04,
  0x1e, 0x0c, 0xe7, 0x53, 0x27, 0xd2, 0x0e, 0xcf,
  0xb4, 0xb3, 0x22, 0xd6, 0x07, 0x7f, 0xd1, 0xa8,
  0xcb, 0xfb, 0xbe, 0xbb, 0x21, 0x56, 0xdc, 0xd5,
  0x13, 0xdc, 0x06, 0x43, 0x35, 0xee, 0x06, 0x85,
  0x22, 0xab, 0x13, 0xed, 0xf1, 0x26, 0x16, 0xbe,
  0xb1, 0xd4, 0xd8, 0x9f, 0x19, 0x04, 0xd7, 0xdc,
  0x1b, 0xf5, 0xe8, 0x34, 0x1f, 0x10, 0x12, 0xac,
  0xe3, 0x09, 0x19, 0xd9, 0x35, 0x3c, 0xeb, 0xb4,
  0xab, 0x11, 0xaa, 0x84, 0x34, 0x3b, 0xa1, 0xa4,
  0xdd, 0x13, 0xd0, 0x47, 0x4e, 0x3e, 0x08, 0xa9,
  0xe4, 0x11, 0xe8, 0xc6, 0xf3, 0x5b, 0x25, 0xb1,
  0xd3, 0xd1, 0xba, 0xf3, 0x25, 0x58, 0xee, 0xcc,
  0xc4, 0xf8, 0xa8, 0x30, 0x2b, 0x51, 0xd1, 0xb8,
  0x18, 0x70, 0xc9, 0xe1, 0xfb, 0x0d, 0x1a, 0xe6,
  0xf8, 0xa1, 0xe6, 0x0e, 0xef, 0xa6, 0xe9, 0x02,
  0x97, 0xf3, 0xbb, 0x20, 0x2a, 0x52, 0xff, 0xdf,
  0x0e, 0x4c, 0xd6, 0xfe, 0xd4, 0x40, 0x2d, 0xe5,
  0x1c, 0x96, 0xb6, 0xea, 0x09, 0xaf, 0xfa, 0x1a,
  0xac, 0x10, 0xf2, 0x09, 0xff, 0x2b, 0xd3, 0xd8,
  0x33, 0x32, 0xdb, 0xc1, 0x08, 0x04, 0x02, 0xd2,
  0xdb, 0x82, 0xdf, 0x17, 0x35, 0xb3, 0xf7, 0x2f,
  0x9c, 0x27, 0xf7, 0x12, 0x17, 0x10, 0xb4, 0xe9,
  0x0b, 0xf8, 0xd6, 0xc1, 0x09, 0x19, 0x12, 0xc9,
  0x10, 0x81, 0xbf, 0x29, 0x3c, 0x96, 0xf3, 0x1b,
  0x9c, 0x00, 0x19, 0x17, 0x11, 0xf5, 0xe2, 0xc4,
  0x08, 0x16, 0xdf, 0xf8, 0x11, 0x1e, 0x08, 0xc5,
  0xde, 0xaa, 0xd7, 0x00, 0x53, 0xb2, 0x25, 0x2d,
  0x12, 0xda, 0xf0, 0x25, 0x06, 0xed, 0x14, 0x45,
  0x15, 0x01, 0xb3, 0xeb, 0x52, 0x22, 0x04, 0x1a,
  0x0d, 0x01, 0xec, 0x15, 0xcd, 0xfb, 0x07, 0x39,
  0xf8, 0x10, 0xf6, 0x2c, 0x33, 0xd6, 0x39, 0x1c,
  0xdd, 0xe2, 0xfa, 0x38, 0x35, 0x0a, 0xdc, 0x00,
  0x32, 0x0e, 0x13, 0xed, 0xac, 0x31, 0x22, 0x34,
  0xe9, 0xe9, 0xf1, 0x24, 0x34, 0xde, 0x3e, 0x51,
  0xf8, 0x24, 0x95, 0x38, 0x6f, 0x2f, 0xec, 0x31,
  0xfb, 0x0d, 0x3e, 0xd7, 0xb4, 0x46, 0x41, 0x32,
  0xf7, 0x10, 0x16, 0x18, 0x0f, 0x07, 0x1a, 0x71,
  0xf1, 0x2c, 0xb7, 0x15, 0x1b, 0x2c, 0x0d, 0x29,
  0xdb, 0xfb, 0x26, 0x16, 0xc6, 0xff, 0x35, 0x13,
  0x0e, 0xff, 0x10, 0x25, 0x26, 0xd2, 0xf1, 0x26,
  0xaf, 0x1a, 0xb4, 0xcb, 0x03, 0x02, 0xb7, 0x20,
  0x17, 0x16, 0x22, 0xf3, 0x81, 0x4b, 0x56, 0xee,
  0xdc, 0x07, 0xef, 0x81, 0xef, 0xdf, 0x0c, 0xe4,
  0xde, 0xc8, 0xcd, 0x1a, 0x3a, 0x1f, 0x11, 0xee,
  0x0e, 0xde, 0xe4, 0xba, 0xbb, 0x00, 0x1c, 0xd1,
  0xfd, 0xfc, 0xdb, 0xc7, 0xdb, 0xd8, 0xf5, 0xfe,
  0xce, 0xd1, 0xbf, 0x50, 0x3a, 0xec, 0x17, 0x11,
  0x0d, 0xc0, 0xc9, 0xe9, 0xc1, 0x01, 0x04, 0xe5,
  0x26, 0x1b, 0xe4, 0x30, 0x1f, 0xd6, 0x00, 0x45,
  0xc7, 0xdb, 0xe3, 0xea, 0xec, 0xd0, 0x26, 0x05,
  0xe9, 0x07, 0x16, 0x1b, 0x99, 0x42, 0x0f, 0xd3,
  0xf1, 0xff, 0x05, 0x1c, 0xd3, 0xc0, 0xed, 0x33,
  0xd3, 0xd7, 0x91, 0xe8, 0x16, 0x96, 0x2f, 0x20,
  0x0e, 0x0d, 0xea, 0xfd, 0xc8, 0x10, 0x24, 0xac,
  0x20, 0xf6, 0x08, 0x17, 0x1b, 0xc9, 0xdf, 0xf1,
  0xb1, 0x08, 0xf9, 0x07, 0xe7, 0xc2, 0x3a, 0xf2,
  0x19, 0xe4, 0x18, 0xfb, 0xba, 0x26, 0xee, 0xde,
  0x25, 0xe2, 0x11, 0x0e, 0xe2, 0xaf, 0xe9, 0x29,
  0xfc, 0xe8, 0xcc, 0x0a, 0x2e, 0x27, 0xe0, 0x2d,
  0x5f, 0x26, 0x3c, 0x5e, 0xce, 0x44, 0x3c, 0xd8,
  0xf8, 0xd1, 0x02, 0x41, 0x09, 0xcc, 0x17, 0x7f,
  0xeb, 0x15, 0xa7, 0x17, 0x14, 0x11, 0xc5, 0x6e,
  0x3a, 0x61, 0x42, 0x66, 0xd8, 0x4e, 0x4b, 0x19,
  0xe4, 0x00, 0x18, 0x24, 0x0e, 0xf5, 0x45, 0x3c,
  0xfe, 0x07, 0xf3, 0x2c, 0x46, 0x13, 0xe9, 0x74,
  0x27, 0x4a, 0x05, 0x3c, 0xc2, 0x45, 0x0f, 0xe4,
  0x24, 0x0b, 0x21, 0x11, 0x45, 0xd1, 0x42, 0x40,
  0xe4, 0x12, 0xbe, 0xf0, 0x63, 0xe0, 0xe2, 0x21,
  0x5e, 0x3a, 0x24, 0x64, 0xbe, 0x50, 0x11, 0x22,
  0xf3, 0x03, 0x16, 0x41, 0xe4, 0xd5, 0x07, 0x51,
  0xff, 0xf3, 0xeb, 0xe1, 0x43, 0x27, 0xc7, 0x3c,
  0x43, 0x45, 0xfc, 0x21, 0xd4, 0x2a, 0x23, 0xf8,
  0x16, 0xd8, 0xf0, 0x0a, 0x15, 0xcf, 0x32, 0x67,
  0x10, 0x81, 0xd3, 0xc4, 0x3a, 0x1a, 0xe3, 0x54,
  0xfc, 0xc2, 0x09, 0xff, 0xd8, 0x08, 0x38, 0x13,
  0xfe, 0xe8, 0x11, 0x68, 0x07, 0xd5, 0x02, 0x1d,
  0xfd, 0xeb, 0xe2, 0x0f, 0x21, 0x0b, 0xbc, 0x14,
  0x28, 0xea, 0x00, 0x47, 0xff, 0x0d, 0x4c, 0xfc,
  0x1f, 0xf2, 0x34, 0x38, 0x51, 0xfc, 0x48, 0x52,
  0xce, 0xe7, 0xe1, 0xeb, 0x73, 0xe8, 0xd9, 0x6c,
  0x39, 0x0a, 0xfb, 0x19, 0xf9, 0x16, 0x26, 0x27,
  0x28, 0xb8, 0x27, 0x38, 0x3a, 0xf7, 0xdb, 0x5f,
  0xc3, 0xce, 0xea, 0xf8, 0x1e, 0x36, 0xdd, 0x68,
  0x0e, 0xf3, 0xd2, 0x17, 0xdc, 0x25, 0x1b, 0xf5,
  0x0d, 0xed, 0x14, 0xeb, 0x23, 0xd4, 0x3c, 0x6b,
  0xc5, 0xd1, 0x9e, 0x99, 0x61, 0xde, 0xd6, 0x4b,
  0x1d, 0x29, 0x17, 0x00, 0x8f, 0x0b, 0x55, 0x1d,
  0x2c, 0xb0, 0x24, 0x3c, 0x09, 0x17, 0xd4, 0xe2,
  0x0c, 0xfd, 0xad, 0xe5, 0xe3, 0xc2, 0xd6, 0x2f,
  0x22, 0x0e, 0xe7, 0xf1, 0xee, 0x32, 0x2f, 0x36,
  0xe9, 0xed, 0x36, 0xb9, 0x10, 0x29, 0x01, 0xfc,
  0xfd, 0x05, 0xf4, 0xda, 0x1c, 0xd4, 0x8c, 0xf7,
  0xef, 0x45, 0xae, 0x23, 0xe0, 0xda, 0x23, 0x2b,
  0xec, 0xc3, 0x22, 0xf7, 0xca, 0x26, 0xa9, 0x25,
  0x01, 0xbe, 0xb3, 0xdd, 0xf4, 0xc6, 0xdb, 0x28,
  0x27, 0xda, 0xaf, 0x30, 0xba, 0xb1, 0x15, 0x1e,
  0xb2, 0x81, 0x3e, 0xe9, 0xac, 0xd5, 0xf6, 0x30,
  0xdc, 0xa0, 0xd5, 0xb8, 0xa6, 0x93, 0xa0, 0x15,
  0x12, 0xd4, 0xdb, 0xf9, 0xaf, 0xc2, 0xf6, 0x37,
  0xdd, 0xac, 0x13, 0xc9, 0xbe, 0xf4, 0xa2, 0x27,
  0xbe, 0xac, 0xe3, 0x9f, 0xbf, 0xc7, 0xc1, 0xf4,
  0xfe, 0xab, 0xc7, 0x15, 0xa8, 0xfc, 0x48, 0xe7,
  0xd5, 0x12, 0x0e, 0xb2, 0x98, 0xd9, 0xb0, 0xd8,
  0xa6, 0xc0, 0x15, 0x0e, 0xdc, 0xdc, 0xf5, 0xf4,
  0x19, 0x13, 0xe0, 0xfc, 0xa5, 0x20, 0xfc, 0x1e,
  0xe3, 0x01, 0xf4, 0xcb, 0xf0, 0xcc, 0xd0, 0xf4,
  0xce, 0xeb, 0xd8, 0x25, 0xfe, 0xa4, 0xe4, 0xd1,
  0x09, 0xc6, 0x04, 0xeb, 0xc2, 0xcb, 0x35, 0x42,
  0xbb, 0x17, 0xe4, 0xb9, 0xb1, 0xd4, 0xdd, 0xb9,
  0xbf, 0xd2, 0x99, 0x0f, 0xec, 0x9e, 0x0e, 0xe9,
  0xe0, 0xdc, 0xf3, 0xfb, 0x94, 0xe4, 0x3b, 0x1e,
  0xb3, 0xee, 0xf1, 0xdd, 0xec, 0xc8, 0x9c, 0xfe,
  0xe5, 0xe3, 0x81, 0x09, 0x96, 0xc3, 0xfa, 0xc2,
  0xe0, 0xc7, 0x2e, 0xd9, 0xb2, 0xcd, 0x3f, 0x3b,
  0xb9, 0xd3, 0xbe, 0xc4, 0xa7, 0xe1, 0x98, 0xd9,
  0xeb, 0xf7, 0xa2, 0x19, 0xb7, 0xa2, 0x0b, 0x08,
  0x24, 0x0c, 0x0d, 0xcb, 0x8d, 0xd5, 0x45, 0x2d,
  0xc6, 0x2e, 0x16, 0xbe, 0xe7, 0xce, 0xc8, 0xbd,
  0x63, 0x32, 0x04, 0x3a, 0xb7, 0xce, 0xf1, 0xcb,
  0xd3, 0xda, 0x17, 0xf2, 0x0d, 0xd9, 0xd7, 0xf2,
  0x06, 0x3c, 0xc3, 0xb6, 0xd5, 0xe2, 0x91, 0xe9,
  0x4e, 0x0f, 0xf5, 0xf5, 0x81, 0xef, 0xfc, 0xd7,
  0xb7, 0x03, 0xf6, 0x01, 0xe7, 0x9f, 0x13, 0xda,
  0xe0, 0x35, 0xd5, 0x86, 0xcd, 0xde, 0xc0, 0xa2,
  0x2c, 0x41, 0xf6, 0x3d, 0x86, 0xe4, 0x0a, 0xc7,
  0xe6, 0xfb, 0x2b, 0xf0, 0xd5, 0xc2, 0xd5, 0xd9,
  0xbf, 0x1c, 0xe2, 0x9f, 0xf5, 0x1f, 0x9a, 0xae,
  0x42, 0x42, 0xec, 0x1a, 0x90, 0xb5, 0x02, 0xe1,
  0xb3, 0xef, 0xfa, 0x15, 0xda, 0xc8, 0xfd, 0xce,
  0xce, 0x47, 0xd6, 0x8a, 0xc4, 0xe8, 0x9b, 0xae,
  0x3d, 0x3c, 0xf1, 0xf6, 0x99, 0x9d, 0xf9, 0xfc,
  0xa4, 0xf8, 0x00, 0x02, 0xa6, 0x92, 0xf9, 0xd8,
  0xd7, 0xf8, 0xc0, 0xd9, 0xcd, 0x05, 0xfd, 0x3b,
  0xf5, 0xbd, 0x3b, 0xff, 0x27, 0xfa, 0xd6, 0xfe,
  0xd2, 0xea, 0xc1, 0x7c, 0xde, 0x06, 0x29, 0xc7,
  0xd2, 0x07, 0xaf, 0xd1, 0x21, 0xe7, 0x70, 0x47,
  0x02, 0xcf, 0xf3, 0x26, 0x3e, 0x10, 0xf9, 0x04,
  0x28, 0xd3, 0x01, 0x73, 0xf9, 0xc5, 0x2f, 0xac,
  0x0b, 0x0f, 0x9b, 0x01, 0x20, 0xf6, 0x7f, 0x45,
  0x06, 0x2f, 0xcb, 0x52, 0x48, 0xec, 0xce, 0x47,
  0x1c, 0xd6, 0x02, 0x70, 0x22, 0x19, 0x26, 0xd0,
  0xf3, 0xfb, 0xaa, 0x3e, 0x3d, 0xf5, 0x51, 0x5f,
  0x20, 0x1f, 0xb4, 0xfe, 0x53, 0x07, 0xd7, 0x6b,
  0xe2, 0x03, 0x20, 0x4f, 0x1a, 0x38, 0x4e, 0xc2,
  0x3d, 0x05, 0xce, 0x48, 0x09, 0xd1, 0x3d, 0x4f,
  0x35, 0x2e, 0xdb, 0xeb, 0x2f, 0xc6, 0xdc, 0x36,
  0x1f, 0x16, 0x24, 0x07, 0x31, 0x2c, 0x05, 0xf6,
  0x1d, 0xf5, 0x1b, 0x29, 0xb9, 0x56, 0x2d, 0x0a,
  0x0f, 0x25, 0xf4, 0xbc, 0xaf, 0xf8, 0xee, 0xc7,
  0xda, 0x8d, 0xe8, 0x5a, 0x07, 0x10, 0xf8, 0x1f,
  0x1c, 0xc4, 0x29, 0x12, 0x27, 0xca, 0x0e, 0x01,
  0xe3, 0xd1, 0xa3, 0x25, 0x1d, 0x15, 0xec, 0xe8,
  0x3c, 0xe5, 0x8d, 0x4c, 0x04, 0xf3, 0xfb, 0xc6,
  0xb0, 0xb6, 0x47, 0xfa, 0xdc, 0x3f, 0xf8, 0x1f,
  0x30, 0x3e, 0xc9, 0xb9, 0xc8, 0x3f, 0xf9, 0xeb,
  0xe4, 0x90, 0xf4, 0x6e, 0x3a, 0xad, 0x53, 0xbf,
  0xcc, 0x81, 0xd2, 0xb4, 0x18, 0xda, 0xdf, 0xf0,
  0x0d, 0x01, 0xf4, 0xae, 0xc5, 0x50, 0x2a, 0x4a,
  0x1f, 0x8c, 0xc2, 0x3f, 0xf6, 0x08, 0x28, 0xcc,
  0xc8, 0xab, 0x25, 0xb2, 0xed, 0x39, 0x43, 0x39,
  0xf9, 0xe8, 0xff, 0xca, 0x58, 0x37, 0xb3, 0x20,
  0x02, 0xbe, 0xdd, 0x40, 0x23, 0x13, 0xf7, 0x01,
  0x34, 0xfe, 0xf9, 0xfd, 0x3b, 0x1d, 0xcd, 0x8b,
  0xee, 0x98, 0x07, 0x4d, 0x0f, 0x1f, 0x22, 0xbe,
  0x4e, 0x38, 0x35, 0x20, 0x48, 0xd3, 0xa0, 0xcb,
  0x1a, 0x36, 0x15, 0xb0, 0x54, 0xeb, 0x37, 0x1b,
  0xad, 0x36, 0xc0, 0xe2, 0xc9, 0x07, 0x8c, 0x32,
  0xfc, 0xa9, 0xf5, 0xfa, 0xe1, 0x16, 0xaf, 0x26,
  0x38, 0xe7, 0xda, 0x44, 0xc2, 0xee, 0xc9, 0x25,
  0xc5, 0x16, 0xd4, 0xb8, 0x18, 0x3a, 0x57, 0x12,
  0xb3, 0xa3, 0xb2, 0x29, 0xdc, 0x47, 0xe2, 0xd9,
  0xdc, 0xe5, 0x90, 0x63, 0x1c, 0xfa, 0x89, 0x4c,
  0xf6, 0x03, 0x0a, 0xfd, 0x04, 0x84, 0x0b, 0xc6,
  0x86, 0x5e, 0x8b, 0xfb, 0xd0, 0xcd, 0x0e, 0xf2,
  0x81, 0xe0, 0x96, 0xbb, 0xd6, 0xfa, 0xc8, 0x0c,
  0xe2, 0xec, 0x34, 0xed, 0x19, 0x16, 0xf6, 0xa5,
  0x09, 0x14, 0xbd, 0xe5, 0xc8, 0x0c, 0x1d, 0xcd,
  0xe1, 0x81, 0xcf, 0x13, 0xd0, 0x13, 0xd8, 0xd9,
  0xc8, 0xf8, 0x49, 0xae, 0x2b, 0x2b, 0x40, 0x17,
  0x13, 0xcf, 0x0d, 0xd5, 0xef, 0x25, 0x23, 0x09,
  0xea, 0xd3, 0xdd, 0xf1, 0xde, 0xf7, 0x0b, 0xa0,
  0xbb, 0xba, 0x1d, 0xd0, 0xf4, 0x2c, 0x24, 0xd3,
  0xd2, 0xdf, 0xed, 0xc1, 0x0f, 0xed, 0x13, 0x54,
  0xe6, 0xa1, 0xd8, 0x2c, 0xf7, 0xe6, 0xd4, 0xb5,
  0x07, 0x91, 0x19, 0xb0, 0x2b, 0x13, 0x18, 0xd5,
  0xc8, 0x10, 0xc7, 0x9f, 0x37, 0x3d, 0x22, 0x49,
  0x15, 0xb3, 0xab, 0xff, 0xde, 0x28, 0xf4, 0xf1,
  0xdc, 0x95, 0xf3, 0xb2, 0x16, 0x29, 0xeb, 0xad,
  0xee, 0x09, 0xed, 0x93, 0x1d, 0xfe, 0x27, 0xf3,
  0x1e, 0xdf, 0xb7, 0x07, 0x0c, 0x01, 0x1f, 0xed,
  0xca, 0xe3, 0x39, 0xd5, 0x24, 0x05, 0xe7, 0xb3,
  0xd0, 0xdd, 0xc4, 0xcb, 0x10, 0x23, 0xfa, 0x15,
  0x25, 0xc4, 0x16, 0x7a, 0x1d, 0x03, 0x22, 0x23,
  0x2b, 0x9e, 0xba, 0x1a, 0xfb, 0xec, 0x14, 0x3c,
  0x3f, 0xe1, 0x12, 0x31, 0x2e, 0x51, 0x03, 0xd6,
  0x2f, 0xf6, 0x0d, 0x7f, 0x44, 0xe0, 0x02, 0x4d,
  0xce, 0xe0, 0xea, 0xde, 0xfe, 0xf8, 0xf0, 0x28,
  0xea, 0x4b, 0x1e, 0x02, 0x2e, 0x7a, 0xfa, 0xdb,
  0x3a, 0xf3, 0x15, 0x59, 0x2d, 0x10, 0xf5, 0x0b,
  0x02, 0xbb, 0xeb, 0xf3, 0x24, 0xff, 0xd9, 0xfc,
  0x30, 0xf5, 0xdd, 0x40, 0xed, 0x10, 0x17, 0x21,
  0x09, 0xe6, 0x02, 0x49, 0x00, 0xc7, 0xfe, 0x36,
  0xe1, 0xa2, 0xcb, 0x11, 0xbc, 0xe4, 0xef, 0x54,
  0x00, 0x5a, 0x20, 0xe9, 0xd3, 0x26, 0x18, 0x09,
  0x20, 0xeb, 0x07, 0xd1, 0xd2, 0xc5, 0xe3, 0x17,
  0x9e, 0xad, 0xcd, 0x06, 0xba, 0x30, 0x98, 0xf7,
  0x18, 0xdb, 0x01, 0xeb, 0xe9, 0x32, 0xea, 0x23,
  0x17, 0x07, 0xe2, 0x23, 0x1f, 0x12, 0xe5, 0xed,
  0x90, 0x19, 0x09, 0xf9, 0x19, 0x26, 0x90, 0x1b,
  0x05, 0xec, 0xb9, 0xdc, 0xeb, 0x35, 0xaa, 0xd8,
  0x18, 0xdb, 0xf5, 0xee, 0xb5, 0x02, 0xf9, 0x17,
  0xd3, 0xe3, 0x0c, 0x04, 0x31, 0xf4, 0x81, 0x12,
  0x1d, 0x1e, 0xce, 0x1d, 0x25, 0x49, 0xc1, 0xe4,
  0x33, 0x0b, 0x09, 0x21, 0x00, 0x1c, 0xe5, 0xa4,
  0xa4, 0x27, 0x48, 0xef, 0x03, 0x20, 0x87, 0x19,
  0xd0, 0x1a, 0xb3, 0x00, 0xed, 0x4f, 0xcd, 0xee,
  0x31, 0xe4, 0xdd, 0x0e, 0xcd, 0x35, 0xf9, 0xda,
  0xde, 0xf5, 0xf6, 0xe5, 0x2a, 0x07, 0xb0, 0x02,
  0xed, 0xdd, 0xd5, 0xb8, 0xef, 0x06, 0xc0, 0xe0,
  0x02, 0xd8, 0x15, 0xe1, 0x24, 0x20, 0x3d, 0x0a,
  0xe0, 0xf8, 0x57, 0xf1, 0x20, 0x40, 0x91, 0xea,
  0xf6, 0x21, 0xf9, 0x18, 0xf8, 0x09, 0xdb, 0xd9,
  0x01, 0xf7, 0xa9, 0xf0, 0x0e, 0xea, 0xde, 0xec,
  0xfd, 0x0a, 0xf6, 0xd8, 0x42, 0x1c, 0x0d, 0xca,
  0xc3, 0xcc, 0xf5, 0xf1, 0x04, 0xd6, 0xf8, 0x0b,
  0xc6, 0x26, 0xc3, 0x26, 0xe7, 0x1c, 0xe9, 0xe4,
  0x24, 0x37, 0xde, 0xf8, 0x38, 0x3f, 0x23, 0x09,
  0xc2, 0xa1, 0xfc, 0xc4, 0x2a, 0xd1, 0x0c, 0x21,
  0xac, 0xe3, 0xc0, 0x11, 0xe4, 0x1a, 0xb1, 0xb2,
  0xf3, 0x4e, 0xfb, 0xc1, 0x2f, 0xf6, 0x32, 0xff,
  0xd0, 0xc8, 0xd5, 0xea, 0x17, 0xae, 0xe8, 0x06,
  0xd9, 0x39, 0xc6, 0xfe, 0xd8, 0x2c, 0xd8, 0xcd,
  0x47, 0xf2, 0xdc, 0xc1, 0x32, 0x05, 0xf3, 0x02,
  0xcc, 0x96, 0xb7, 0x1e, 0x03, 0xcb, 0xf8, 0x4d,
  0x9e, 0x46, 0xdd, 0xd7, 0xdb, 0x3d, 0x0e, 0xea,
  0xfb, 0x09, 0xeb, 0xd9, 0x16, 0x42, 0x2c, 0xce,
  0xcb, 0x9c, 0x81, 0x0f, 0x45, 0xcd, 0xf9, 0x0f,
  0xef, 0x00, 0x23, 0xba, 0xde, 0xe1, 0xe1, 0xb9,
  0x28, 0x28, 0xf3, 0x03, 0x81, 0xbd, 0xeb, 0x0c,
  0x1c, 0x29, 0x2c, 0xb6, 0xf6, 0xf9, 0x9a, 0xe4,
  0x11, 0x1c, 0xfa, 0xb5, 0xb9, 0xe2, 0xf9, 0xb3,
  0x0b, 0x00, 0xf3, 0x03, 0xad, 0xa1, 0x0f, 0x0a,
  0xf8, 0x30, 0x24, 0xcd, 0xe4, 0xfe, 0xe3, 0xdc,
  0xeb, 0x04, 0x1b, 0xce, 0xce, 0xe2, 0xf1, 0xbd,
  0x12, 0x10, 0x2b, 0x2f, 0x97, 0xb9, 0xee, 0x09,
  0x1b, 0x0c, 0x26, 0xe2, 0xf1, 0xf6, 0xca, 0x1a,
  0x06, 0xf0, 0xed, 0xc7, 0xe1, 0xbc, 0xfe, 0xcb,
  0x1d, 0x2d, 0xf2, 0x05, 0x9a, 0xb1, 0xf0, 0xf4,
  0x04, 0x20, 0x37, 0xf6, 0x10, 0xf2, 0xea, 0x0d,
  0xe7, 0x06, 0xec, 0xd2, 0xda, 0xcd, 0xf5, 0xe1,
  0x1c, 0x01, 0x01, 0x0e, 0xa8, 0xb8, 0xf7, 0xed,
  0x2f, 0xfe, 0x4d, 0xe6, 0x00, 0x0e, 0xe8, 0xff,
  0x15, 0xfc, 0x02, 0x14, 0x2a, 0xa7, 0x1b, 0x3b,
  0xff, 0xff, 0xee, 0x30, 0x54, 0x36, 0x00, 0x42,
  0x3e, 0xf5, 0x05, 0x16, 0xe2, 0x3f, 0x12, 0x32,
  0xe8, 0xeb, 0x1b, 0x44, 0x35, 0xeb, 0x3f, 0x5c,
  0xec, 0xf5, 0xe5, 0x05, 0x63, 0x48, 0xd2, 0x28,
  0x0a, 0x09, 0xfd, 0x4e, 0xd6, 0x56, 0x0c, 0x2d,
  0x01, 0x03, 0x31, 0x0e, 0x43, 0xe0, 0x55, 0x34,
  0xe2, 0x2c, 0xc0, 0xe5, 0x69, 0xff, 0x04, 0x5a,
  0x39, 0xea, 0x1d, 0x20, 0xd5, 0x56, 0x50, 0x0f,
  0x45, 0xcd, 0x2f, 0x50, 0xf4, 0xf9, 0xeb, 0x6a,
  0x01, 0x2a, 0xc5, 0x0e, 0x66, 0x2e, 0xcf, 0x31,
  0x36, 0xf4, 0x06, 0x36, 0xb8, 0x29, 0x45, 0xf6,
  0xea, 0xc8, 0xd9, 0x3e, 0x22, 0xb8, 0xee, 0x19,
  0xd4, 0x0e, 0xc6, 0xd7, 0x0c, 0xd3, 0xd8, 0x59,
  0x47, 0x22, 0x2b, 0x26, 0x81, 0x22, 0x38, 0x23,
  0xaa, 0xa7, 0xfc, 0x0a, 0x15, 0x1f, 0x2e, 0xbd,
  0x2c, 0x5d, 0xff, 0xca, 0xed, 0xf6, 0xf1, 0xee,
  0x18, 0xd5, 0x09, 0x01, 0x46, 0xdd, 0xce, 0xce,
  0xd6, 0xe1, 0xbb, 0x02, 0x2a, 0x3f, 0x04, 0xe8,
  0x38, 0x57, 0x28, 0xf1, 0xb8, 0x08, 0xec, 0xec,
  0x20, 0xce, 0xe6, 0xe8, 0x0b, 0xe2, 0xeb, 0x30,
  0xc9, 0xa7, 0xc9, 0xf6, 0xf0, 0x12, 0xc6, 0xb9,
  0x13, 0x2d, 0x03, 0xf1, 0x01, 0xf7, 0x0e, 0xf3,
  0x28, 0xe4, 0xda, 0x00, 0x0a, 0xe8, 0x1f, 0xfb,
  0xa1, 0xba, 0x1c, 0x04, 0x1d, 0x15, 0x04, 0xd4,
  0xf2, 0x14, 0xd8, 0xcc, 0x30, 0x04, 0x34, 0xb2,
  0x08, 0xca, 0xbb, 0xfc, 0x0b, 0xc2, 0x1f, 0x32,
  0x81, 0x98, 0xe2, 0xdd, 0xed, 0x44, 0xe8, 0xc2,
  0x0e, 0x11, 0xdb, 0xe1, 0x40, 0x1d, 0x2c, 0xdd,
  0x15, 0xce, 0xa7, 0xfb, 0x40, 0xae, 0x0d, 0x1c,
  0x81, 0xc8, 0xeb, 0xaf, 0x00, 0xea, 0x24, 0x27,
  0xdb, 0xf7, 0xf5, 0xdf, 0x46, 0x05, 0x1d, 0xde,
  0x06, 0xf2, 0x27, 0xdd, 0xc5, 0xbc, 0x3f, 0xde,
  0xa0, 0xdd, 0xe4, 0xcc, 0x11, 0xd8, 0xf1, 0xd4,
  0xbf, 0x2e, 0xab, 0xe9, 0x29, 0x12, 0xf5, 0xd1,
  0xf7, 0x20, 0x44, 0xdc, 0xdc, 0xea, 0x39, 0xda,
  0xe6, 0x2b, 0xf9, 0x05, 0x04, 0xb2, 0xfd, 0xdd,
  0xe8, 0x03, 0x0d, 0x10, 0x09, 0x1f, 0xc6, 0xfe,
  0x19, 0x2f, 0x2f, 0x1d, 0x1e, 0xab, 0x62, 0xe1,
  0xaf, 0x1f, 0x2e, 0x03, 0x2f, 0x0c, 0x15, 0x24,
  0xe0, 0x39, 0x08, 0x1c, 0x3a, 0x09, 0xfc, 0x0a,
  0xda, 0xff, 0x31, 0xe4, 0xd8, 0xc1, 0x2d, 0xeb,
  0xb5, 0x49, 0xf4, 0x14, 0xf2, 0x0d, 0x30, 0x12,
  0xec, 0x10, 0xbe, 0x4b, 0x57, 0xd3, 0xf9, 0xf2,
  0xff, 0x31, 0x1f, 0xcf, 0x0b, 0x1b, 0xe7, 0xed,
  0x21, 0xfc, 0xc1, 0xf2, 0xf0, 0x09, 0x1c, 0xdb,
  0xb3, 0x0c, 0x03, 0xd5, 0x1e, 0x01, 0xf8, 0xee,
  0xd2, 0x06, 0xdf, 0xe4, 0xec, 0x29, 0xe8, 0x3b,
  0x20, 0xfe, 0xef, 0xfb, 0xdc, 0xfa, 0x07, 0xae,
  0x81, 0xfb, 0x24, 0xf1, 0x24, 0x1c, 0xfc, 0xd5,
  0xe2, 0xfa, 0x0e, 0xc1, 0x16, 0x2f, 0xcd, 0x19,
  0x27, 0xe1, 0xef, 0x12, 0xd5, 0x18, 0xfa, 0xba,
  0x87, 0x13, 0x1b, 0xe4, 0x1f, 0xf0, 0xbc, 0xfa,
  0xdd, 0x0c, 0x08, 0xec, 0x20, 0x0d, 0x05, 0x2b,
  0x07, 0xf0, 0xf3, 0xef, 0xf9, 0x0b, 0x03, 0xc1,
  0x96, 0x0f, 0x23, 0xc7, 0x24, 0x24, 0xba, 0xcb,
  0xef, 0xf1, 0x01, 0xb5, 0x04, 0x07, 0xfe, 0x07,
  0x2e, 0xd8, 0xf7, 0x0d, 0xf7, 0x1c, 0x1d, 0xd4,
  0x9f, 0x22, 0x2a, 0xef, 0x0b, 0x1c, 0xa7, 0xe2,
  0x04, 0xed, 0x0d, 0xe0, 0x0e, 0x15, 0x01, 0x22,
  0x1c, 0x46, 0xb9, 0x20, 0xf6, 0x7c, 0x10, 0xf5,
  0xfb, 0x58, 0xf1, 0xe3, 0xee, 0x14, 0x29, 0xf1,
  0xec, 0xb4, 0xc9, 0xe6, 0x26, 0x95, 0x06, 0xd0,
  0xbd, 0x4e, 0xf4, 0xdf, 0x0b, 0x72, 0x07, 0xe7,
  0x3e, 0x61, 0xa7, 0x02, 0xaa, 0x3e, 0xf3, 0xbe,
  0x14, 0x9e, 0xb4, 0xc1, 0x01, 0x91, 0xc9, 0x00,
  0xd8, 0x27, 0xbe, 0x06, 0xcc, 0x4b, 0xe2, 0xaf,
  0x29, 0x39, 0x8b, 0xba, 0x98, 0x0c, 0x0f, 0xe9,
  0xf3, 0xc7, 0xad, 0xec, 0xcf, 0x91, 0x02, 0x13,
  0xd5, 0x4e, 0xd7, 0xe5, 0x1c, 0x55, 0xce, 0x09,
  0xdd, 0x1e, 0xab, 0x08, 0xda, 0x0e, 0x25, 0x02,
  0x1f, 0x8e, 0x8e, 0x1a, 0x1e, 0xae, 0xff, 0x34,
  0xc5, 0x58, 0x30, 0xf9, 0xf9, 0x21, 0x12, 0xb7,
  0x23, 0x13, 0xb8, 0xcc, 0xd0, 0x36, 0xe4, 0xe6,
  0x36, 0x81, 0xbd, 0x36, 0x36, 0x98, 0x26, 0x44,
  0xfa, 0xab, 0xd5, 0x37, 0xf9, 0xbf, 0xd8, 0x81,
  0xc4, 0x0a, 0x3e, 0xec, 0xff, 0x1c, 0xdb, 0xe5,
  0xa8, 0x23, 0xff, 0xe6, 0x2e, 0x01, 0x92, 0xb6,
  0x62, 0x95, 0xcf, 0xe8, 0x5f, 0xf1, 0x26, 0x86,
  0xf6, 0xbc, 0x47, 0xf3, 0xd4, 0x5f, 0x1d, 0x9c,
  0x8c, 0x51, 0xd6, 0x0e, 0x28, 0xe5, 0xad, 0x97,
  0x13, 0xaa, 0xf9, 0xfd, 0xee, 0x1c, 0x09, 0xb9,
  0xe2, 0xcb, 0xf9, 0xb3, 0xd4, 0x3a, 0xc5, 0xc7,
  0xdd, 0xef, 0xc7, 0xec, 0xbf, 0x15, 0x0e, 0xd2,
  0x05, 0xa7, 0xbd, 0x43, 0x08, 0xb6, 0xf2, 0xf4,
  0x0b, 0xd4, 0x5d, 0xba, 0x30, 0x21, 0xf2, 0x0f,
  0xf5, 0xcf, 0x31, 0xe9, 0xff, 0x31, 0x9c, 0x81,
  0x3c, 0xcf, 0xb8, 0x20, 0x4e, 0x2e, 0xd5, 0x9d,
  0x06, 0xf3, 0x40, 0x24, 0xf9, 0x4f, 0xdf, 0xde,
  0xa1, 0x39, 0xe5, 0xb3, 0xe5, 0x2c, 0xda, 0xa0,
  0x1c, 0xec, 0xf5, 0x24, 0xe1, 0xc4, 0x4c, 0x58,
  0x10, 0xdb, 0x08, 0xe0, 0x35, 0xce, 0xc8, 0x5e,
  0x01, 0xd8, 0xe1, 0x0f, 0xf4, 0x30, 0x21, 0x20,
  0x34, 0xfe, 0xf5, 0x43, 0x0f, 0xe2, 0x4f, 0x48,
  0x1d, 0xe0, 0xbe, 0xea, 0x51, 0x23, 0x0d, 0x53,
  0x33, 0x83, 0xee, 0x42, 0xec, 0x15, 0x27, 0x27,
  0xfc, 0xd9, 0x01, 0x41, 0x3e, 0xec, 0x28, 0x7f,
  0xf0, 0x2a, 0x0e, 0xf8, 0x33, 0x2f, 0xd5, 0x15,
  0x3a, 0x06, 0x13, 0x62, 0xf7, 0xf8, 0x24, 0xf8,
  0xdf, 0xd2, 0xfd, 0x25, 0x3d, 0xba, 0x34, 0x38,
  0x0b, 0x27, 0xc4, 0xb2, 0x4c, 0x0b, 0xd3, 0x30,
  0x19, 0xcf, 0x21, 0x3e, 0xcf, 0x34, 0x31, 0x2b,
  0x01, 0xaf, 0xd4, 0x56, 0xdf, 0xd1, 0x3b, 0x20,
  0xe6, 0x2a, 0xe7, 0xce, 0x1a, 0xd4, 0x07, 0x6f,
  0x08, 0xd7, 0x1d, 0x42, 0xd2, 0x01, 0x55, 0x1d,
  0xf9, 0x01, 0x05, 0x10, 0x32, 0xea, 0x5a, 0x7f,
  0x1c, 0x10, 0xe2, 0x14, 0x25, 0x29, 0xb7, 0x44,
  0x1f, 0xed, 0xf6, 0x50, 0xc3, 0x1b, 0x43, 0x1a,
  0x03, 0xf6, 0xfb, 0x0e, 0x1f, 0xed, 0x54, 0x53,
  0x00, 0xf9, 0xc3, 0xe6, 0x5d, 0xcf, 0xe3, 0x69,
  0x21, 0x0b, 0x33, 0x30, 0xde, 0x1f, 0x4c, 0x25,
  0x22, 0x0f, 0xeb, 0x38, 0x33, 0xee, 0xe5, 0x75,
  0xea, 0x45, 0xf6, 0x07, 0x5b, 0xdf, 0xc4, 0x17,
  0x31, 0x30, 0x3e, 0x2e, 0xc2, 0x04, 0x47, 0x0d,
  0x05, 0xd6, 0x01, 0x4e, 0x2a, 0xff, 0x26, 0x37,
  0xd0, 0xfe, 0xb8, 0xf4, 0x3e, 0xed, 0xdf, 0x3d,
  0x40, 0xe8, 0x01, 0x0a, 0xbb, 0xf9, 0x3f, 0x23,
  0x07, 0xd3, 0xd9, 0xfd, 0xc2, 0xde, 0x0c, 0x2d,
  0xd8, 0x25, 0xd2, 0xe3, 0xf0, 0xfa, 0xc9, 0x36,
  0x33, 0xd1, 0x17, 0x29, 0xc3, 0xdb, 0x1b, 0x14,
  0xe0, 0xfe, 0x04, 0xbe, 0xd5, 0xf4, 0xc6, 0x20,
  0x01, 0x8d, 0x34, 0xf7, 0xee, 0xee, 0xcb, 0x0f,
  0xcb, 0xea, 0xfe, 0x20, 0xeb, 0xbd, 0xd7, 0xc7,
  0xee, 0x0d, 0xfd, 0x9a, 0x9a, 0xd9, 0xe1, 0xe0,
  0xdf, 0xa8, 0x3d, 0x03, 0x09, 0x0a, 0xe6, 0xed,
  0xd6, 0xff, 0x00, 0xe5, 0xef, 0x9d, 0xf9, 0xd9,
  0xd1, 0x1d, 0xd1, 0x81, 0xe9, 0xd0, 0xe4, 0x1d,
  0xd2, 0xd0, 0x17, 0x2c, 0x48, 0x1f, 0x15, 0x0f,
  0xd8, 0x0e, 0xf4, 0xf6, 0x05, 0xae, 0x18, 0x01,
  0x06, 0x25, 0x00, 0xe3, 0x23, 0xc5, 0xf4, 0x12,
  0xd6, 0xdc, 0x28, 0x40, 0x0a, 0x12, 0x0c, 0x04,
  0x01, 0x0a, 0x16, 0xf7, 0xfa, 0x1e, 0x0e, 0xf4,
  0x07, 0x1b, 0xf7, 0x48, 0x04, 0xc1, 0x58, 0x17,
  0xb6, 0x00, 0xf8, 0x3f, 0x24, 0xd6, 0x2f, 0x1f,
  0xe9, 0x1f, 0x2c, 0x0e, 0xb2, 0x3c, 0x08, 0x08,
  0x00, 0x8d, 0x35, 0x0f, 0x21, 0xeb, 0x1c, 0x19,
  0x00, 0xd9, 0xef, 0xb6, 0x08, 0xe8, 0xd8, 0x01,
  0x12, 0xea, 0xe7, 0x1a, 0x1d, 0xf7, 0x06, 0x2e,
  0xf7, 0xb6, 0x42, 0x23, 0x18, 0x1c, 0x11, 0x47,
  0x11, 0x94, 0x24, 0xd9, 0x32, 0xb7, 0xff, 0x17,
  0x57, 0x00, 0xed, 0x09, 0xdb, 0xd6, 0xf8, 0x0a,
  0xe7, 0xa6, 0x2f, 0xfa, 0x05, 0xfc, 0xe5, 0x07,
  0xed, 0xd7, 0xfe, 0xed, 0x17, 0xd8, 0xe9, 0x0a,
  0x3c, 0xf1, 0x1c, 0x26, 0xec, 0xdc, 0xea, 0x21,
  0xce, 0xd1, 0x46, 0xe3, 0x26, 0x09, 0xe2, 0x44,
  0xe8, 0x81, 0xfd, 0xe3, 0x09, 0xc4, 0xc6, 0xdd,
  0x4e, 0x22, 0xe1, 0x3c, 0xfe, 0xfe, 0x00, 0x19,
  0xc1, 0xbc, 0x42, 0xfe, 0xfd, 0xf0, 0x0e, 0x17,
  0xe8, 0xc9, 0xcf, 0x03, 0xea, 0x04, 0xe8, 0x1f,
  0x1e, 0xf6, 0xe4, 0x2e, 0x1b, 0xef, 0xfa, 0x0a,
  0xc8, 0xca, 0xb5, 0xf2, 0x3a, 0x75, 0xe3, 0xd3,
  0x15, 0x2d, 0xf9, 0xc1, 0xed, 0x30, 0x3c, 0xf7,
  0x11, 0xa7, 0x2e, 0xe8, 0x20, 0xcc, 0xfd, 0xdf,
  0xda, 0x05, 0xbc, 0x12, 0x3a, 0x44, 0xb3, 0xe5,
  0x0f, 0x57, 0xe5, 0xcb, 0xfc, 0xf5, 0x0e, 0xbd,
  0xff, 0xad, 0x10, 0xe1, 0xec, 0xaf, 0xdf, 0xe8,
  0xa3, 0xbf, 0xf1, 0xeb, 0x01, 0x49, 0xcb, 0xf6,
  0x51, 0x6b, 0xcb, 0xdb, 0x2c, 0xf5, 0x14, 0xf6,
  0xee, 0x87, 0xb6, 0x0b, 0x17, 0xb8, 0x1f, 0x0a,
  0xce, 0xb7, 0xd1, 0x19, 0xe7, 0x3e, 0xe2, 0xcf,
  0x41, 0x47, 0xca, 0xd8, 0x04, 0x34, 0x05, 0xeb,
  0xf3, 0xa5, 0xe5, 0x27, 0x07, 0x86, 0xed, 0x16,
  0x81, 0x12, 0xf3, 0xf2, 0xf8, 0x03, 0xae, 0xc4,
  0x26, 0xff, 0xf2, 0xe6, 0x13, 0x53, 0x28, 0x1e,
  0x0d, 0x8d, 0xcd, 0xe9, 0x41, 0xd5, 0xf9, 0x56,
  0x98, 0x03, 0xf1, 0x89, 0xea, 0xe4, 0x0b, 0x2c,
  0xc2, 0xcf, 0x35, 0x12, 0x7f, 0xec, 0xf1, 0x19,
  0x03, 0x27, 0x36, 0xfe, 0xf3, 0xb6, 0x16, 0x07,
  0xb0, 0xe3, 0x16, 0x82, 0xe8, 0xf5, 0x0c, 0x3a,
  0xf8, 0xfe, 0xee, 0x0f, 0x40, 0x33, 0xe5, 0x29,
  0xef, 0x16, 0x24, 0x47, 0xde, 0xf9, 0x57, 0xf2,
  0xbd, 0xff, 0x02, 0x0f, 0x37, 0xe9, 0x4a, 0x5b,
  0xf5, 0x08, 0xd2, 0xf5, 0x2b, 0x29, 0xb0, 0x00,
  0x0a, 0xf8, 0x36, 0x36, 0xca, 0x2f, 0x39, 0xe3,
  0xf6, 0x43, 0xd8, 0x1e, 0x1c, 0xbf, 0x28, 0x63,
  0xae, 0x21, 0xff, 0xef, 0x7d, 0xec, 0xa3, 0x31,
  0x17, 0x18, 0x05, 0x28, 0xc6, 0xee, 0x45, 0x03,
  0x12, 0x03, 0xd2, 0x4e, 0x20, 0xa7, 0x64, 0x04,
  0xf1, 0x1d, 0xb2, 0xf1, 0x24, 0x20, 0x07, 0x24,
  0x23, 0x14, 0x1b, 0xf8, 0xb4, 0x05, 0x39, 0x27,
  0x23, 0xf1, 0x00, 0x1e, 0x0b, 0xb8, 0x27, 0x73,
  0xe8, 0xe2, 0xf2, 0x0e, 0x41, 0x45, 0xc8, 0x2a,
  0x1d, 0xff, 0x38, 0x3a, 0xbd, 0x3d, 0x23, 0x24,
  0x07, 0xf7, 0x1b, 0x3b, 0x26, 0xc3, 0x0b, 0x4e,
  0xfd, 0xdb, 0xd0, 0x14, 0x7c, 0x1d, 0xcb, 0x2c,
  0x57, 0x3f, 0x18, 0x4a, 0xbd, 0x5e, 0x2a, 0x2c,
  0x4b, 0x11, 0x32, 0x56, 0x28, 0xdb, 0x63, 0x78,
  0xf3, 0xec, 0xa0, 0x4d, 0x62, 0x63, 0xd7, 0x64,
  0xf9, 0x0c, 0xfc, 0x4a, 0xa5, 0x2b, 0x40, 0x3b,
  0x50, 0xc7, 0x14, 0x5e, 0x50, 0xc0, 0x28, 0x3b,
  0xf5, 0xdd, 0xb1, 0x2f, 0x48, 0xf2, 0xd9, 0x6f,
  0x17, 0xed, 0x3a, 0x2b, 0x82, 0x1b, 0x60, 0x33,
  0xf8, 0xa1, 0x0f, 0x72, 0x3d, 0xb0, 0x60, 0x7f,
  0xf9, 0x21, 0x99, 0x20, 0x58, 0x0a, 0xcf, 0x77,
  0x37, 0xdd, 0x0e, 0x4d, 0x81, 0x4c, 0x46, 0x40,
  0xf0, 0x94, 0x0d, 0x0f, 0xf3, 0x33, 0xfc, 0xe0,
  0xc0, 0x73, 0xdb, 0xe3, 0x7b, 0x39, 0x0c, 0xc0,
  0x20, 0xf2, 0xeb, 0xff, 0x09, 0xe8, 0x23, 0xfd,
  0xf7, 0x8b, 0xdb, 0xfa, 0xe6, 0x2b, 0x2b, 0x10,
  0xc5, 0x38, 0xf3, 0xdd, 0x5c, 0xf3, 0x23, 0xe7,
  0x4b, 0xa9, 0xd3, 0xce, 0x25, 0xb5, 0x03, 0x46,
  0xa9, 0x8c, 0x24, 0xb3, 0xe6, 0x30, 0xbb, 0x2c,
  0x3f, 0x7a, 0x16, 0xbc, 0x0b, 0x16, 0x27, 0xb2,
  0x08, 0xab, 0xee, 0xfc, 0x06, 0xbf, 0xfc, 0x0f,
  0xa9, 0x81, 0xfb, 0xa9, 0xb5, 0x00, 0x23, 0x0f,
  0x22, 0x37, 0x18, 0xd6, 0x77, 0x3e, 0x0a, 0xac,
  0x43, 0xfe, 0xc3, 0xef, 0x28, 0xf5, 0xef, 0x3d,
  0xd3, 0xef, 0xdd, 0xe2, 0x25, 0xf0, 0x00, 0x16,
  0xf8, 0x10, 0x29, 0x23, 0x5d, 0x73, 0xf9, 0xda,
  0x11, 0xb6, 0xf9, 0x0c, 0x20, 0x90, 0x1e, 0x59,
  0x2a, 0xf7, 0xff, 0xff, 0x04, 0x00, 0x00, 0x00,
  0x80, 0x00, 0x00, 0x00, 0xe2, 0x02, 0x00, 0x00,
  0x53, 0xf9, 0xff, 0xff, 0x41, 0x02, 0x00, 0x00,
  0xa1, 0x02, 0x00, 0x00, 0x74, 0x00, 0x00, 0x00,
  0xa8, 0x01, 0x00, 0x00, 0x1d, 0xfc, 0xff, 0xff,
  0x7d, 0xfd, 0xff, 0xff, 0x7b, 0x05, 0x00, 0x00,
  0x26, 0xf8, 0xff, 0xff, 0xd0, 0xf8, 0xff, 0xff,
  0xeb, 0xff, 0xff, 0xff, 0xc0, 0xfe, 0xff, 0xff,
  0xdf, 0x00, 0x00, 0x00, 0xaa, 0xfe, 0xff, 0xff,
  0x6f, 0xf8, 0xff, 0xff, 0xf4, 0x02, 0x00, 0x00,
  0x4b, 0xfe, 0xff, 0xff, 0xa9, 0xfb, 0xff, 0xff,
  0xbc, 0x04, 0x00, 0x00, 0x59, 0xff, 0xff, 0xff,
  0xc7, 0xfc, 0xff, 0xff, 0x6c, 0xff, 0xff, 0xff,
  0x56, 0xfb, 0xff, 0xff, 0x84, 0xf7, 0xff, 0xff,
  0x48, 0xfb, 0xff, 0xff, 0x8d, 0x04, 0x00, 0x00,
  0x19, 0x01, 0x00, 0x00, 0x4a, 0x03, 0x00, 0x00,
  0xea, 0xff, 0xff, 0xff, 0xb7, 0xfd, 0xff, 0xff,
  0xe6, 0x04, 0x00, 0x00, 0xb6, 0xf7, 0xff, 0xff,
  0x04, 0x00, 0x00, 0x00, 0x00, 0x04, 0x00, 0x00,
  0x56, 0x81, 0x8a, 0x0e, 0x17, 0x3e, 0xd1, 0xda,
  0x3d, 0x93, 0x44, 0x2a, 0x04, 0xf6, 0xb9, 0x02,
  0xab, 0x9d, 0x1c, 0xff, 0x6e, 0xc4, 0xcd, 0xe1,
  0xdf, 0x5d, 0x50, 0x94, 0xd0, 0x5a, 0xff, 0x03,
  0x0f, 0x16, 0xf3, 0x29, 0x4e, 0xc1, 0x37, 0x9a,
  0xf1, 0xcf, 0x14, 0x53, 0xf4, 0x81, 0x1c, 0x98,
  0x08, 0x84, 0x84, 0xf4, 0x09, 0x21, 0xcb, 0xc2,
  0x2d, 0xe8, 0x90, 0x25, 0xcd, 0x47, 0x08, 0xd2,
  0x24, 0x9d, 0xfd, 0xe2, 0x44, 0x45, 0x39, 0xd2,
  0x62, 0x81, 0x51, 0x45, 0xe2, 0xa7, 0xc3, 0xf0,
  0xc9, 0x97, 0x4b, 0xe7, 0x61, 0x18, 0x04, 0xee,
  0x61, 0xf3, 0x60, 0xed, 0xda, 0xec, 0x46, 0xdf,
  0xb4, 0x30, 0xec, 0x38, 0x32, 0xbf, 0xa6, 0xac,
  0x4e, 0x7e, 0x20, 0xdd, 0x40, 0x5a, 0xf6, 0x2f,
  0x65, 0x56, 0xb7, 0x38, 0x16, 0x69, 0xd5, 0xc4,
  0xde, 0xaa, 0x0a, 0x37, 0x64, 0xef, 0x81, 0x38,
  0xeb, 0x67, 0x68, 0x17, 0x05, 0xf6, 0xac, 0x02,
  0xcc, 0x49, 0xc7, 0x57, 0xd8, 0x20, 0xce, 0x34,
  0x7f, 0x12, 0xc2, 0x3a, 0x2a, 0x21, 0x59, 0x10,
  0xef, 0xe1, 0xcd, 0xcf, 0x1a, 0x0f, 0x8d, 0x09,
  0xce, 0x3d, 0xb3, 0xaf, 0xe2, 0x29, 0x19, 0xb6,
  0x97, 0x7f, 0xea, 0xdc, 0x18, 0x15, 0xda, 0xe9,
  0x06, 0x4c, 0xba, 0x1f, 0x17, 0x50, 0xde, 0xf3,
  0x0e, 0xd7, 0xd1, 0x1c, 0xde, 0xcd, 0x96, 0x3b,
  0x0d, 0xcf, 0xb3, 0xbf, 0x3c, 0x0a, 0x1e, 0xc5,
  0x72, 0xa2, 0x0e, 0x63, 0x43, 0xe6, 0xfc, 0xa8,
  0x27, 0xca, 0x36, 0x33, 0x22, 0x03, 0x81, 0x99,
  0x65, 0x57, 0x77, 0x1b, 0x17, 0x64, 0x34, 0xa7,
  0xf9, 0x15, 0xac, 0xcc, 0x56, 0xf5, 0x2f, 0xd3,
  0x81, 0x61, 0xe2, 0x4c, 0x3c, 0x52, 0x1b, 0x6d,
  0x1c, 0x6f, 0xdc, 0xdd, 0x48, 0x43, 0xb5, 0x0b,
  0xba, 0xe0, 0x81, 0x26, 0xb3, 0x2d, 0xbb, 0xb5,
  0xe8, 0x2e, 0xf4, 0xfa, 0xd4, 0xad, 0xb0, 0xf3,
  0x09, 0xed, 0xdf, 0xc0, 0xac, 0x2d, 0x23, 0xaa,
  0x81, 0x25, 0xe3, 0xee, 0xe5, 0xa2, 0x02, 0xff,
  0x34, 0xad, 0x06, 0xe6, 0x00, 0xb9, 0x0e, 0xe2,
  0x92, 0x12, 0x3a, 0x00, 0xfa, 0xc0, 0xc3, 0xd1,
  0x18, 0x41, 0xf8, 0x5a, 0x18, 0xea, 0xd7, 0x19,
  0x2f, 0x20, 0xb2, 0x26, 0x0b, 0xea, 0xe3, 0xc2,
  0xf0, 0xe4, 0xf4, 0xf4, 0x71, 0x15, 0xc3, 0x7f,
  0x43, 0x29, 0x70, 0xbf, 0xfc, 0xe4, 0xf9, 0x15,
  0x0d, 0x50, 0x20, 0x71, 0xda, 0x57, 0x1d, 0x25,
  0x2e, 0x0c, 0x82, 0x05, 0x0d, 0x44, 0x7f, 0xfd,
  0xb4, 0xbe, 0xfc, 0xc2, 0x1b, 0xfe, 0xc5, 0x48,
  0xdb, 0x05, 0x77, 0xc0, 0xb0, 0xa2, 0x29, 0xcf,
  0x1b, 0x7f, 0xdf, 0x59, 0xd7, 0x22, 0x02, 0xef,
  0x5d, 0x89, 0x9b, 0x3b, 0x49, 0xb9, 0x74, 0xc5,
  0xbd, 0xdb, 0xf0, 0x45, 0x0d, 0xd8, 0xc1, 0x34,
  0xd4, 0x9f, 0x4a, 0xa9, 0xd5, 0xf8, 0xd5, 0x1d,
  0x19, 0x63, 0x27, 0xcf, 0xc5, 0x50, 0x0e, 0xfb,
  0xa2, 0xe3, 0xc2, 0x6b, 0xc6, 0xbb, 0x0f, 0xab,
  0xaf, 0x35, 0x81, 0x39, 0x6a, 0xc3, 0x08, 0x17,
  0x55, 0x0b, 0xac, 0x3d, 0x41, 0x0a, 0x44, 0x15,
  0x13, 0x81, 0x6f, 0xdf, 0x50, 0xe9, 0x14, 0xbd,
  0x26, 0xd8, 0xd0, 0xbb, 0x36, 0xad, 0xd3, 0xc7,
  0x45, 0xf5, 0x60, 0xcf, 0xb4, 0x2a, 0xfe, 0x18,
  0x76, 0xa0, 0xd4, 0xac, 0x23, 0xd3, 0x00, 0x48,
  0x3e, 0xba, 0x53, 0x47, 0x25, 0x10, 0x1a, 0x03,
  0x13, 0x05, 0x51, 0x9d, 0xe9, 0xa0, 0x11, 0x1f,
  0x72, 0x7f, 0x5a, 0x20, 0xa5, 0x14, 0x50, 0x21,
  0x24, 0xda, 0xf2, 0x10, 0xf2, 0xde, 0x1c, 0xca,
  0x23, 0xdb, 0x2a, 0x32, 0x15, 0x4c, 0xef, 0x3d,
  0x48, 0x39, 0xf5, 0xae, 0xd1, 0x2f, 0x72, 0x29,
  0xc0, 0x1b, 0xae, 0x81, 0x4a, 0x38, 0x8d, 0xb5,
  0x06, 0x45, 0x35, 0xf2, 0x9f, 0xc1, 0xd0, 0x0a,
  0x4e, 0x2a, 0xe3, 0x07, 0xcc, 0x15, 0xd6, 0x43,
  0x0e, 0x81, 0xd0, 0x48, 0x21, 0x77, 0x23, 0xde,
  0xd9, 0x29, 0xea, 0xd1, 0x56, 0x18, 0xb8, 0x46,
  0xd8, 0xe0, 0x3b, 0xe5, 0xac, 0xcf, 0x8e, 0x44,
  0x7f, 0xfa, 0xe0, 0x53, 0x01, 0x69, 0xcb, 0x30,
  0x2a, 0xf8, 0xa6, 0x0e, 0xf0, 0x62, 0x10, 0x53,
  0x2e, 0x20, 0x83, 0xde, 0x40, 0xdd, 0xf3, 0x5c,
  0xff, 0x10, 0xdd, 0xc6, 0x23, 0x27, 0x08, 0xfe,
  0xcd, 0x1c, 0xd4, 0xfa, 0xdb, 0xc9, 0x09, 0x44,
  0x13, 0x55, 0xbc, 0xac, 0x16, 0x3a, 0xc8, 0x3d,
  0xdf, 0x9e, 0xf8, 0xac, 0xd1, 0x11, 0xc5, 0x81,
  0x5c, 0xff, 0x81, 0x38, 0x5c, 0xfa, 0x13, 0xd1,
  0x6a, 0xa0, 0xf0, 0x13, 0x0e, 0xb4, 0xf2, 0x01,
  0xec, 0xf6, 0x76, 0x1a, 0x1e, 0x18, 0x0d, 0xa6,
  0x5b, 0x1a, 0x20, 0x38, 0xfb, 0x18, 0x2b, 0x1a,
  0xef, 0xd5, 0x9b, 0x40, 0x81, 0xfc, 0x8e, 0xf0,
  0xa6, 0x38, 0xe2, 0x1e, 0x28, 0x1c, 0x44, 0x4c,
  0x0f, 0x16, 0x91, 0x5a, 0x61, 0x05, 0x26, 0xce,
  0x2c, 0x37, 0x29, 0x23, 0x40, 0x9e, 0x17, 0x48,
  0x60, 0xf2, 0xaf, 0x3a, 0x0c, 0x13, 0x33, 0x68,
  0x6c, 0xa5, 0x7f, 0xdc, 0xe7, 0xba, 0xca, 0xef,
  0xfd, 0xd1, 0x36, 0xf9, 0x3b, 0xc1, 0xa9, 0x07,
  0x53, 0x5e, 0x47, 0xee, 0xe5, 0x5f, 0xe9, 0xec,
  0x2b, 0xb0, 0xe8, 0xef, 0x0c, 0x2f, 0xf3, 0x6a,
  0x51, 0xc2, 0x5d, 0xac, 0xcc, 0xb2, 0xfe, 0x1d,
  0x00, 0xac, 0x4e, 0xf2, 0x44, 0xfd, 0x81, 0xbf,
  0x18, 0x2e, 0x7a, 0xd0, 0xdc, 0x59, 0xf6, 0x25,
  0x45, 0x90, 0xe1, 0x21, 0x33, 0x1f, 0x16, 0xf7,
  0x2e, 0xd5, 0x29, 0xf1, 0xda, 0x07, 0xc0, 0xfc,
  0xf4, 0xc7, 0x32, 0xbc, 0xe1, 0xa1, 0xad, 0x1c,
  0x37, 0x52, 0x7f, 0x9f, 0xea, 0x2f, 0xef, 0xe9,
  0xd6, 0xd6, 0x7f, 0xe2, 0xb9, 0x83, 0x1b, 0xe6,
  0x38, 0x3c, 0xe0, 0x4c, 0x04, 0x3e, 0xb5, 0xd5,
  0xf3, 0x9e, 0xe0, 0xee, 0xbc, 0xfd, 0x13, 0x15,
  0xa9, 0xd2, 0x0b, 0x39, 0x38, 0x97, 0xba, 0x71,
  0xc6, 0xf1, 0xf0, 0x81, 0xce, 0xaf, 0x25, 0x4f,
  0xd5, 0x72, 0x21, 0xf0, 0x57, 0x8f, 0xea, 0x37,
  0xe7, 0x3f, 0x8b, 0xe8, 0xa1, 0x60, 0xe4, 0xe6,
  0xf8, 0x00, 0x48, 0x45, 0xad, 0x17, 0x0e, 0x54,
  0x2e, 0xa7, 0xea, 0xd4, 0x0b, 0x3f, 0x3d, 0x01,
  0x28, 0xa9, 0x72, 0xaa, 0x3d, 0x15, 0xf2, 0x4a,
  0x06, 0xbe, 0x5f, 0xc7, 0x3d, 0xac, 0xcc, 0xaf,
  0x50, 0x4e, 0x7f, 0x18, 0xbc, 0xcb, 0x25, 0x10,
  0x16, 0xae, 0x13, 0x2d, 0x37, 0x28, 0xc9, 0x0d,
  0x4f, 0xb0, 0x64, 0xf0, 0x3a, 0xad, 0x0a, 0xb7,
  0x81, 0xc1, 0xc3, 0xce, 0x48, 0xf3, 0xd9, 0xc9,
  0xe4, 0xee, 0x51, 0x86, 0xa9, 0x26, 0x1d, 0x0c,
  0x20, 0xe1, 0x4d, 0xcb, 0x93, 0x94, 0xbf, 0xb3,
  0xec, 0xe6, 0xc1, 0x3f, 0xec, 0xe7, 0xa1, 0xe2,
  0xfb, 0x81, 0x1e, 0x35, 0x25, 0x42, 0x6c, 0xf4,
  0xf7, 0xa5, 0xb7, 0x30, 0xee, 0x0b, 0x0f, 0x41,
  0xdb, 0xef, 0x20, 0xd4, 0x18, 0x30, 0x15, 0xd4,
  0x81, 0x06, 0x11, 0xea, 0x36, 0xd4, 0xed, 0x5b,
  0xf4, 0x3a, 0xa0, 0xdd, 0x02, 0x70, 0xf8, 0x05,
  0xe9, 0x16, 0x11, 0xcb, 0xce, 0x9a, 0xeb, 0xbe,
  0xf6, 0x4e, 0x24, 0xc1, 0xd8, 0xe6, 0xc9, 0xf6,
  0x02, 0x7f, 0xba, 0xec, 0x63, 0x6a, 0xb2, 0xd3,
  0x57, 0x0c, 0xe0, 0x60, 0x47, 0x2f, 0x1f, 0x05,
  0xd2, 0xd9, 0x03, 0xad, 0x6a, 0x0c, 0x0c, 0x12,
  0xd3, 0x53, 0x43, 0x39, 0xdf, 0x86, 0xa7, 0x1f,
  0xb0, 0x28, 0x94, 0xf0, 0x6e, 0x2b, 0xdd, 0x33,
  0x51, 0x37, 0xf7, 0x34, 0x32, 0x7f, 0x66, 0x52,
  0x1b, 0xf5, 0x2d, 0xd7, 0x74, 0x2b, 0x8d, 0x04,
  0xc2, 0xfb, 0xff, 0xff, 0x04, 0x00, 0x00, 0x00,
  0x80, 0x00, 0x00, 0x00, 0x19, 0x09, 0x00, 0x00,
  0xed, 0xf8, 0xff, 0xff, 0xf4, 0x01, 0x00, 0x00,
  0xad, 0xfb, 0xff, 0xff, 0xd8, 0xfd, 0xff, 0xff,
  0x03, 0xfe, 0xff, 0xff, 0xf2, 0xff, 0xff, 0xff,
  0x65, 0xfb, 0xff, 0xff, 0x3b, 0xf8, 0xff, 0xff,
  0xa5, 0x01, 0x00, 0x00, 0x3e, 0xf7, 0xff, 0xff,
  0xa9, 0x00, 0x00, 0x00, 0x0d, 0x05, 0x00, 0x00,
  0xf0, 0x06, 0x00, 0x00, 0x08, 0x01, 0x00, 0x00,
  0xe3, 0x02, 0x00, 0x00, 0xc1, 0x01, 0x00, 0x00,
  0x2d, 0x00, 0x00, 0x00, 0x55, 0xf9, 0xff, 0xff,
  0x6e, 0xfb, 0xff, 0xff, 0xf5, 0xfc, 0xff, 0xff,
  0xdc, 0x02, 0x00, 0x00, 0x5f, 0x01, 0x00, 0x00,
  0x94, 0x09, 0x00, 0x00, 0x8f, 0x05, 0x00, 0x00,
  0x4b, 0x04, 0x00, 0x00, 0x4b, 0x00, 0x00, 0x00,
  0xb3, 0x0a, 0x00, 0x00, 0xfb, 0x01, 0x00, 0x00,
  0x30, 0xfd, 0xff, 0xff, 0x42, 0xff, 0xff, 0xff,
  0xbe, 0xfe, 0xff, 0xff, 0x4e, 0xfc, 0xff, 0xff,
  0x04, 0x00, 0x00, 0x00, 0x00, 0x02, 0x00, 0x00,
  0x4e, 0x01, 0x12, 0xee, 0xe6, 0xd0, 0xef, 0xe8,
  0x23, 0xd7, 0xc0, 0x81, 0xd3, 0x07, 0x23, 0xf0,
  0xe9, 0xb9, 0xcd, 0x14, 0xee, 0x18, 0xf4, 0x3c,
  0xb3, 0x0a, 0xea, 0x4e, 0xb7, 0xe9, 0xcd, 0xcc,
  0x40, 0x0f, 0x20, 0xcf, 0x91, 0xa4, 0x10, 0xb9,
  0x23, 0xd0, 0xbc, 0x81, 0xd6, 0x58, 0x3a, 0xe5,
  0xc4, 0xca, 0x9a, 0x22, 0x1e, 0x4d, 0x55, 0x2f,
  0xc0, 0x06, 0x0f, 0x03, 0x00, 0xa7, 0xee, 0xc0,
  0xd9, 0xf4, 0xc9, 0x42, 0x78, 0x14, 0xf6, 0x56,
  0xd4, 0x7c, 0x59, 0x48, 0x64, 0xf4, 0xc2, 0x1f,
  0x58, 0x45, 0x4b, 0xd2, 0x43, 0xc3, 0xc7, 0xd3,
  0x26, 0x4d, 0x03, 0xec, 0x7f, 0x55, 0x56, 0x63,
  0xb4, 0xf2, 0xe3, 0x5e, 0x55, 0x44, 0x07, 0x54,
  0x13, 0x2a, 0x41, 0x7f, 0x4f, 0xf7, 0xd8, 0x3f,
  0x64, 0x50, 0x3f, 0xe0, 0x2b, 0xf6, 0xc2, 0xc6,
  0x51, 0x27, 0xc6, 0xd6, 0x32, 0x49, 0x45, 0x30,
  0x4a, 0x03, 0x21, 0xcc, 0xcb, 0xc8, 0xdb, 0xbb,
  0x05, 0xe3, 0xcd, 0x81, 0xd9, 0x41, 0xe8, 0xfc,
  0xd2, 0x99, 0xd0, 0xf0, 0xe7, 0x16, 0xd5, 0x26,
  0xb7, 0x01, 0x12, 0x5d, 0xbe, 0xc8, 0xe8, 0xd3,
  0xfc, 0xff, 0xc1, 0x43, 0x6c, 0x35, 0xeb, 0x3d,
  0xdd, 0x67, 0x37, 0x7f, 0x13, 0xd3, 0xfa, 0x1a,
  0x3f, 0x34, 0x5c, 0xfb, 0xf4, 0xd7, 0xfc, 0xd2,
  0x7d, 0xf2, 0xf1, 0xd1, 0x20, 0x34, 0x14, 0x46,
  0x2b, 0xad, 0xc4, 0x96, 0xd3, 0xd8, 0x2f, 0xaf,
  0x3f, 0xae, 0xb4, 0xc4, 0x04, 0xea, 0x17, 0xf2,
  0xbb, 0x86, 0xcd, 0x2d, 0xd1, 0x78, 0x68, 0x63,
  0xd8, 0xd2, 0x3d, 0x7f, 0x13, 0x9c, 0xdb, 0x8f,
  0x7a, 0xc6, 0x46, 0x91, 0xd1, 0x99, 0x34, 0xba,
  0xc9, 0xc4, 0xf1, 0x81, 0xb4, 0x0d, 0xe8, 0x01,
  0xc8, 0xd0, 0xf1, 0x1a, 0xef, 0x0b, 0x00, 0x32,
  0xae, 0x30, 0x3c, 0x0e, 0x9f, 0xd2, 0xf9, 0xd8,
  0xfd, 0x05, 0x47, 0xc7, 0x81, 0xcf, 0x4c, 0xb5,
  0xc7, 0x93, 0xfb, 0xea, 0x08, 0x4e, 0x04, 0xe6,
  0xd0, 0xae, 0xc5, 0x2b, 0xe1, 0x4a, 0x2c, 0x0a,
  0xcc, 0xbc, 0xd7, 0x4e, 0x92, 0x0a, 0xf5, 0xba,
  0xb5, 0xcb, 0x1f, 0x9e, 0xa9, 0xd0, 0x93, 0xd8,
  0x2c, 0xd2, 0xb7, 0xe2, 0xa9, 0x04, 0x81, 0xde,
  0xd5, 0xe5, 0xea, 0x32, 0x04, 0x13, 0xe0, 0xe0,
  0xe8, 0x23, 0xbb, 0x07, 0xb9, 0xdb, 0x0c, 0xd5,
  0x5b, 0x1c, 0xef, 0xda, 0xaa, 0x9d, 0x01, 0x81,
  0x21, 0x9a, 0xa8, 0xb7, 0xaa, 0x69, 0xe7, 0x29,
  0xe5, 0xe4, 0xcf, 0xf2, 0x1c, 0x40, 0x5f, 0x03,
  0xea, 0x07, 0x49, 0x43, 0xb0, 0xbd, 0xa6, 0xa6,
  0x6c, 0x2c, 0x39, 0xc6, 0xc4, 0xa0, 0x2f, 0xd5,
  0x1b, 0xbe, 0x84, 0xe1, 0xdb, 0x60, 0x30, 0xe3,
  0xda, 0x9b, 0xbb, 0xef, 0x34, 0x15, 0xee, 0x3f,
  0xbb, 0xae, 0x22, 0x21, 0xbf, 0x05, 0xfe, 0x81,
  0x42, 0x2b, 0xe7, 0xc7, 0xdd, 0xc4, 0x1b, 0xb2,
  0xeb, 0xb9, 0x81, 0xaf, 0xbe, 0x42, 0x0a, 0x17,
  0xb1, 0x8a, 0xbd, 0x0f, 0x0b, 0xf0, 0x3a, 0x1a,
  0xb8, 0xb7, 0xde, 0x3b, 0xe2, 0xae, 0x93, 0xb2,
  0xf8, 0xfd, 0xfb, 0x7f, 0x70, 0x2c, 0xe2, 0x43,
  0xef, 0x5e, 0x76, 0x4e, 0x5e, 0xcd, 0xd6, 0xf9,
  0x2c, 0x68, 0x0e, 0xdb, 0xfd, 0xe3, 0x08, 0xcc,
  0x50, 0x39, 0xcf, 0xef, 0x3c, 0x2d, 0x36, 0x4a,
  0x09, 0xe3, 0x0b, 0xe2, 0x90, 0xa6, 0xee, 0xb7,
  0x0b, 0xd3, 0xc4, 0x81, 0xa4, 0x15, 0xf6, 0x27,
  0xbc, 0xca, 0xc8, 0xe0, 0xe0, 0xeb, 0x46, 0x68,
  0xc0, 0xae, 0xfd, 0x45, 0xda, 0xda, 0xce, 0xc5,
  0x4a, 0x36, 0xce, 0xde, 0xed, 0xcc, 0x30, 0xe6,
  0xf8, 0xdb, 0xcd, 0x81, 0xfb, 0x0a, 0x4f, 0xca,
  0xbc, 0xc9, 0xe1, 0xe6, 0x3f, 0x68, 0x1c, 0xf4,
  0xed, 0xe9, 0x30, 0x13, 0xb9, 0xe9, 0xdd, 0xe5,
  0x5a, 0xfe, 0xff, 0xff, 0x04, 0x00, 0x00, 0x00,
  0x40, 0x00, 0x00, 0x00, 0x0d, 0x0a, 0x00, 0x00,
  0x5c, 0x0b, 0x00, 0x00, 0xac, 0x08, 0x00, 0x00,
  0xc7, 0x05, 0x00, 0x00, 0x65, 0x0d, 0x00, 0x00,
  0x60, 0x05, 0x00, 0x00, 0x46, 0x0e, 0x00, 0x00,
  0xfe, 0x11, 0x00, 0x00, 0xb7, 0x10, 0x00, 0x00,
  0xa1, 0x01, 0x00, 0x00, 0x03, 0x14, 0x00, 0x00,
  0x0c, 0x0a, 0x00, 0x00, 0x32, 0x0f, 0x00, 0x00,
  0xec, 0x04, 0x00, 0x00, 0x4a, 0x10, 0x00, 0x00,
  0x1c, 0x07, 0x00, 0x00, 0xa6, 0xfe, 0xff, 0xff,
  0x04, 0x00, 0x00, 0x00, 0x20, 0x00, 0x00, 0x00,
  0x31, 0x38, 0x9b, 0xce, 0x65, 0x81, 0x3f, 0x28,
  0xdf, 0x18, 0x23, 0x36, 0x30, 0xed, 0x64, 0x35,
  0xc7, 0xe2, 0x2b, 0x42, 0xcf, 0x0b, 0xd4, 0xc7,
  0x94, 0xa8, 0xb4, 0xe6, 0x81, 0x57, 0xbe, 0xcf,
  0xd2, 0xfe, 0xff, 0xff, 0x04, 0x00, 0x00, 0x00,
  0x08, 0x00, 0x00, 0x00, 0xfb, 0xf9, 0xff, 0xff,
  0x6e, 0x05, 0x00, 0x00, 0xe6, 0xfe, 0xff, 0xff,
  0x04, 0x00, 0x00, 0x00, 0x04, 0x00, 0x00, 0x00,
  0x01, 0x00, 0x00, 0x00, 0xf6, 0xfe, 0xff, 0xff,
  0x04, 0x00, 0x00, 0x00, 0x0c, 0x00, 0x00, 0x00,
  0xff, 0xff, 0xff, 0xff, 0x41, 0x00, 0x00, 0x00,
  0x20, 0x00, 0x00, 0x00, 0x0e, 0xff, 0xff, 0xff,
  0x04, 0x00, 0x00, 0x00, 0x0c, 0x00, 0x00, 0x00,
  0xff, 0xff, 0xff, 0xff, 0x41, 0x00, 0x00, 0x00,
  0x18, 0x00, 0x00, 0x00, 0x26, 0xff, 0xff, 0xff,
  0x04, 0x00, 0x00, 0x00, 0x04, 0x00, 0x00, 0x00,
  0xfd, 0xff, 0xff, 0xff, 0x04, 0xe4, 0xff, 0xff,
  0x08, 0xe4, 0xff, 0xff, 0x0f, 0x00, 0x00, 0x00,
  0x4d, 0x4c, 0x49, 0x52, 0x20, 0x43, 0x6f, 0x6e,
  0x76, 0x65, 0x72, 0x74, 0x65, 0x64, 0x2e, 0x00,
  0x01, 0x00, 0x00, 0x00, 0x14, 0x00, 0x00, 0x00,
  0x00, 0x00, 0x0e, 0x00, 0x18, 0x00, 0x14, 0x00,
  0x10, 0x00, 0x0c, 0x00, 0x08, 0x00, 0x04, 0x00,
  0x0e, 0x00, 0x00, 0x00, 0x14, 0x00, 0x00, 0x00,
  0x1c, 0x00, 0x00, 0x00, 0xfc, 0x02, 0x00, 0x00,
  0x00, 0x03, 0x00, 0x00, 0x04, 0x03, 0x00, 0x00,
  0x04, 0x00, 0x00, 0x00, 0x6d, 0x61, 0x69, 0x6e,
  0x00, 0x00, 0x00, 0x00, 0x0d, 0x00, 0x00, 0x00,
  0xc4, 0x02, 0x00, 0x00, 0x84, 0x02, 0x00, 0x00,
  0x24, 0x02, 0x00, 0x00, 0xfc, 0x01, 0x00, 0x00,
  0xbc, 0x01, 0x00, 0x00, 0x78, 0x01, 0x00, 0x00,
  0x50, 0x01, 0x00, 0x00, 0x1c, 0x01, 0x00, 0x00,
  0xd8, 0x00, 0x00, 0x00, 0x9c, 0x00, 0x00, 0x00,
  0x64, 0x00, 0x00, 0x00, 0x28, 0x00, 0x00, 0x00,
  0x04, 0x00, 0x00, 0x00, 0x36, 0xfe, 0xff, 0xff,
  0x0c, 0x00, 0x00, 0x00, 0x10, 0x00, 0x00, 0x00,
  0x07, 0x00, 0x00, 0x00, 0x01, 0x00, 0x00, 0x00,
  0x1b, 0x00, 0x00, 0x00, 0x01, 0x00, 0x00, 0x00,
  0x1a, 0x00, 0x00, 0x00, 0xda, 0xfd, 0xff, 0xff,
  0x1c, 0x00, 0x00, 0x00, 0x00, 0x00, 0x00, 0x09,
  0x1c, 0x00, 0x00, 0x00, 0x20, 0x00, 0x00, 0x00,
  0x06, 0x00, 0x00, 0x00, 0x00, 0x00, 0x06, 0x00,
  0x08, 0x00, 0x04, 0x00, 0x06, 0x00, 0x00, 0x00,
  0x00, 0x00, 0x80, 0x3f, 0x01, 0x00, 0x00, 0x00,
  0x1a, 0x00, 0x00, 0x00, 0x01, 0x00, 0x00, 0x00,
  0x19, 0x00, 0x00, 0x00, 0x12, 0xfe, 0xff, 0xff,
  0x14, 0x00, 0x00, 0x00, 0x00, 0x00, 0x00, 0x08,
  0x10, 0x00, 0x00, 0x00, 0x14, 0x00, 0x00, 0x00,
  0x05, 0x00, 0x00, 0x00, 0x04, 0xe5, 0xff, 0xff,
  0x01, 0x00, 0x00, 0x00, 0x19, 0x00, 0x00, 0x00,
  0x03, 0x00, 0x00, 0x00, 0x18, 0x00, 0x00, 0x00,
  0x06, 0x00, 0x00, 0x00, 0x05, 0x00, 0x00, 0x00,
  0x46, 0xfe, 0xff, 0xff, 0x14, 0x00, 0x00, 0x00,
  0x00, 0x00, 0x00, 0x08, 0x14, 0x00, 0x00, 0x00,
  0x18, 0x00, 0x00, 0x00, 0x05, 0x00, 0x00, 0x00,
  0xc6, 0xff, 0xff, 0xff, 0x00, 0x00, 0x00, 0x01,
  0x01, 0x00, 0x00, 0x00, 0x18, 0x00, 0x00, 0x00,
  0x03, 0x00, 0x00, 0x00, 0x17, 0x00, 0x00, 0x00,
  0x08, 0x00, 0x00, 0x00, 0x07, 0x00, 0x00, 0x00,
  0x7e, 0xfe, 0xff, 0xff, 0x1c, 0x00, 0x00, 0x00,
  0x00, 0x00, 0x00, 0x08, 0x1c, 0x00, 0x00, 0x00,
  0x20, 0x00, 0x00, 0x00, 0x05, 0x00, 0x00, 0x00,
  0x00, 0x00, 0x06, 0x00, 0x08, 0x00, 0x07, 0x00,
  0x06, 0x00, 0x00, 0x00, 0x00, 0x00, 0x00, 0x01,
  0x01, 0x00, 0x00, 0x00, 0x17, 0x00, 0x00, 0x00,
  0x03, 0x00, 0x00, 0x00, 0x16, 0x00, 0x00, 0x00,
  0x0a, 0x00, 0x00, 0x00, 0x09, 0x00, 0x00, 0x00,
  0xbe, 0xfe, 0xff, 0xff, 0x14, 0x00, 0x00, 0x00,
  0x00, 0x00, 0x00, 0x1b, 0x10, 0x00, 0x00, 0x00,
  0x14, 0x00, 0x00, 0x00, 0x04, 0x00, 0x00, 0x00,
  0xb0, 0xe5, 0xff, 0xff, 0x01, 0x00, 0x00, 0x00,
  0x16, 0x00, 0x00, 0x00, 0x02, 0x00, 0x00, 0x00,
  0x15, 0x00, 0x00, 0x00, 0x04, 0x00, 0x00, 0x00,
  0x6a, 0xff, 0xff, 0xff, 0x0c, 0x00, 0x00, 0x00,
  0x10, 0x00, 0x00, 0x00, 0x03, 0x00, 0x00, 0x00,
  0x01, 0x00, 0x00, 0x00, 0x15, 0x00, 0x00, 0x00,
  0x02, 0x00, 0x00, 0x00, 0x14, 0x00, 0x00, 0x00,
  0x03, 0x00, 0x00, 0x00, 0x12, 0xff, 0xff, 0xff,
  0x14, 0x00, 0x00, 0x00, 0x00, 0x00, 0x00, 0x01,
  0x1c, 0x00, 0x00, 0x00, 0x20, 0x00, 0x00, 0x00,
  0x02, 0x00, 0x00, 0x00, 0x60, 0xff, 0xff, 0xff,
  0x00, 0x00, 0x00, 0x01, 0x01, 0x00, 0x00, 0x00,
  0x01, 0x00, 0x00, 0x00, 0x01, 0x00, 0x00, 0x00,
  0x14, 0x00, 0x00, 0x00, 0x03, 0x00, 0x00, 0x00,
  0x13, 0x00, 0x00, 0x00, 0x0c, 0x00, 0x00, 0x00,
  0x0b, 0x00, 0x00, 0x00, 0x52, 0xff, 0xff, 0xff,
  0x14, 0x00, 0x00, 0x00, 0x00, 0x00, 0x00, 0x34,
  0x10, 0x00, 0x00, 0x00, 0x14, 0x00, 0x00, 0x00,
  0x01, 0x00, 0x00, 0x00, 0x44, 0xe6, 0xff, 0xff,
  0x01, 0x00, 0x00, 0x00, 0x13, 0x00, 0x00, 0x00,
  0x02, 0x00, 0x00, 0x00, 0x12, 0x00, 0x00, 0x00,
  0x01, 0x00, 0x00, 0x00, 0x00, 0x00, 0x0a, 0x00,
  0x10, 0x00, 0x0c, 0x00, 0x08, 0x00, 0x04, 0x00,
  0x0a, 0x00, 0x00, 0x00, 0x0c, 0x00, 0x00, 0x00,
  0x10, 0x00, 0x00, 0x00, 0x03, 0x00, 0x00, 0x00,
  0x01, 0x00, 0x00, 0x00, 0x12, 0x00, 0x00, 0x00,
  0x02, 0x00, 0x00, 0x00, 0x11, 0x00, 0x00, 0x00,
  0x02, 0x00, 0x00, 0x00, 0xb2, 0xff, 0xff, 0xff,
  0x20, 0x00, 0x00, 0x00, 0x00, 0x00, 0x00, 0x01,
  0x28, 0x00, 0x00, 0x00, 0x2c, 0x00, 0x00, 0x00,
  0x02, 0x00, 0x00, 0x00, 0x0c, 0x00, 0x10, 0x00,
  0x00, 0x00, 0x0c, 0x00, 0x08, 0x00, 0x07, 0x00,
  0x0c, 0x00, 0x00, 0x00, 0x00, 0x00, 0x00, 0x01,
  0x01, 0x00, 0x00, 0x00, 0x01, 0x00, 0x00, 0x00,
  0x01, 0x00, 0x00, 0x00, 0x11, 0x00, 0x00, 0x00,
  0x03, 0x00, 0x00, 0x00, 0x10, 0x00, 0x00, 0x00,
  0x0e, 0x00, 0x00, 0x00, 0x0d, 0x00, 0x00, 0x00,
  0x00, 0x00, 0x0e, 0x00, 0x18, 0x00, 0x14, 0x00,
  0x10, 0x00, 0x0c, 0x00, 0x0b, 0x00, 0x04, 0x00,
  0x0e, 0x00, 0x00, 0x00, 0x14, 0x00, 0x00, 0x00,
  0x00, 0x00, 0x00, 0x34, 0x10, 0x00, 0x00, 0x00,
  0x14, 0x00, 0x00, 0x00, 0x01, 0x00, 0x00, 0x00,
  0x00, 0xe7, 0xff, 0xff, 0x01, 0x00, 0x00, 0x00,
  0x10, 0x00, 0x00, 0x00, 0x02, 0x00, 0x00, 0x00,
  0x0f, 0x00, 0x00, 0x00, 0x01, 0x00, 0x00, 0x00,
  0x00, 0x00, 0x0a, 0x00, 0x0c, 0x00, 0x00, 0x00,
  0x08, 0x00, 0x04, 0x00, 0x0a, 0x00, 0x00, 0x00,
  0x08, 0x00, 0x00, 0x00, 0x0c, 0x00, 0x00, 0x00,
  0x01, 0x00, 0x00, 0x00, 0x0f, 0x00, 0x00, 0x00,
  0x01, 0x00, 0x00, 0x00, 0x00, 0x00, 0x00, 0x00,
  0x01, 0x00, 0x00, 0x00, 0x1b, 0x00, 0x00, 0x00,
  0x01, 0x00, 0x00, 0x00, 0x00, 0x00, 0x00, 0x00,
  0x1c, 0x00, 0x00, 0x00, 0x80, 0x18, 0x00, 0x00,
  0x2c, 0x18, 0x00, 0x00, 0xd4, 0x17, 0x00, 0x00,
  0x94, 0x17, 0x00, 0x00, 0x58, 0x17, 0x00, 0x00,
  0xe0, 0x16, 0x00, 0x00, 0x70, 0x16, 0x00, 0x00,
  0x5c, 0x15, 0x00, 0x00, 0x40, 0x14, 0x00, 0x00,
  0x6c, 0x12, 0x00, 0x00, 0x90, 0x10, 0x00, 0x00,
  0xbc, 0x0e, 0x00, 0x00, 0xd8, 0x0c, 0x00, 0x00,
  0x64, 0x0b, 0x00, 0x00, 0xe0, 0x09, 0x00, 0x00,
  0x68, 0x09, 0x00, 0x00, 0xa8, 0x08, 0x00, 0x00,
  0x7c, 0x07, 0x00, 0x00, 0x7c, 0x06, 0x00, 0x00,
  0xd4, 0x05, 0x00, 0x00, 0xa8, 0x04, 0x00, 0x00,
  0xa8, 0x03, 0x00, 0x00, 0x10, 0x03, 0x00, 0x00,
  0x4c, 0x02, 0x00, 0x00, 0x88, 0x01, 0x00, 0x00,
  0xe4, 0x00, 0x00, 0x00, 0x60, 0x00, 0x00, 0x00,
  0x04, 0x00, 0x00, 0x00, 0x06, 0xe8, 0xff, 0xff,
  0x00, 0x00, 0x00, 0x01, 0x14, 0x00, 0x00, 0x00,
  0x1c, 0x00, 0x00, 0x00, 0x1c, 0x00, 0x00, 0x00,
  0x1c, 0x00, 0x00, 0x00, 0x34, 0x00, 0x00, 0x00,
  0x02, 0x00, 0x00, 0x00, 0xff, 0xff, 0xff, 0xff,
  0x02, 0x00, 0x00, 0x00, 0xec, 0xe7, 0xff, 0xff,
  0x1b, 0x00, 0x00, 0x00, 0x53, 0x74, 0x61, 0x74,
  0x65, 0x66, 0x75, 0x6c, 0x50, 0x61, 0x72, 0x74,
  0x69, 0x74, 0x69, 0x6f, 0x6e, 0x65, 0x64, 0x43,
  0x61, 0x6c, 0x6c, 0x5f, 0x31, 0x3a, 0x30, 0x00,
  0x02, 0x00, 0x00, 0x00, 0x01, 0x00, 0x00, 0x00,
  0x02, 0x00, 0x00, 0x00, 0x3a, 0xf7, 0xff, 0xff,
  0x00, 0x00, 0x00, 0x01, 0x18, 0x00, 0x00, 0x00,
  0x20, 0x00, 0x00, 0x00, 0x40, 0x00, 0x00, 0x00,
  0x1b, 0x00, 0x00, 0x00, 0x00, 0x00, 0x00, 0x09,
  0x58, 0x00, 0x00, 0x00, 0x02, 0x00, 0x00, 0x00,
  0xff, 0xff, 0xff, 0xff, 0x02, 0x00, 0x00, 0x00,
  0xe4, 0xe9, 0xff, 0xff, 0x08, 0x00, 0x00, 0x00,
  0x14, 0x00, 0x00, 0x00, 0x01, 0x00, 0x00, 0x00,
  0x80, 0xff, 0xff, 0xff, 0xff, 0xff, 0xff, 0xff,
  0x00, 0x00, 0x00, 0x00, 0x01, 0x00, 0x00, 0x00,
  0x00, 0x00, 0x80, 0x3b, 0x1c, 0x00, 0x00, 0x00,
  0x53, 0x74, 0x61, 0x74, 0x65, 0x66, 0x75, 0x6c,
  0x50, 0x61, 0x72, 0x74, 0x69, 0x74, 0x69, 0x6f,
  0x6e, 0x65, 0x64, 0x43, 0x61, 0x6c, 0x6c, 0x5f,
  0x31, 0x3a, 0x30, 0x31, 0x00, 0x00, 0x00, 0x00,
  0x02, 0x00, 0x00, 0x00, 0x01, 0x00, 0x00, 0x00,
  0x02, 0x00, 0x00, 0x00, 0xba, 0xf7, 0xff, 0xff,
  0x00, 0x00, 0x00, 0x01, 0x18, 0x00, 0x00, 0x00,
  0x20, 0x00, 0x00, 0x00, 0x3c, 0x00, 0x00, 0x00,
  0x1a, 0x00, 0x00, 0x00, 0x00, 0x00, 0x00, 0x09,
  0x78, 0x00, 0x00, 0x00, 0x02, 0x00, 0x00, 0x00,
  0xff, 0xff, 0xff, 0xff, 0x02, 0x00, 0x00, 0x00,
  0x64, 0xea, 0xff, 0xff, 0x08, 0x00, 0x00, 0x00,
  0x10, 0x00, 0x00, 0x00, 0x01, 0x00, 0x00, 0x00,
  0x0a, 0x00, 0x00, 0x00, 0x00, 0x00, 0x00, 0x00,
  0x01, 0x00, 0x00, 0x00, 0x13, 0xde, 0x1f, 0x3e,
  0x42, 0x00, 0x00, 0x00, 0x66, 0x75, 0x6e, 0x63,
  0x74, 0x69, 0x6f, 0x6e, 0x61, 0x6c, 0x5f, 0x34,
  0x5f, 0x31, 0x2f, 0x64, 0x65, 0x6e, 0x73, 0x65,
  0x5f, 0x31, 0x34, 0x5f, 0x31, 0x2f, 0x4d, 0x61,
  0x74, 0x4d, 0x75, 0x6c, 0x3b, 0x66, 0x75, 0x6e,
  0x63, 0x74, 0x69, 0x6f, 0x6e, 0x61, 0x6c, 0x5f,
  0x34, 0x5f, 0x31, 0x2f, 0x64, 0x65, 0x6e, 0x73,
  0x65, 0x5f, 0x31, 0x34, 0x5f, 0x31, 0x2f, 0x42,
  0x69, 0x61, 0x73, 0x41, 0x64, 0x64, 0x00, 0x00,
  0x02, 0x00, 0x00, 0x00, 0x01, 0x00, 0x00, 0x00,
  0x02, 0x00, 0x00, 0x00, 0x5a, 0xf8, 0xff, 0xff,
  0x00, 0x00, 0x00, 0x01, 0x18, 0x00, 0x00, 0x00,
  0x20, 0x00, 0x00, 0x00, 0x3c, 0x00, 0x00, 0x00,
  0x19, 0x00, 0x00, 0x00, 0x00, 0x00, 0x00, 0x09,
  0x98, 0x00, 0x00, 0x00, 0x02, 0x00, 0x00, 0x00,
  0xff, 0xff, 0xff, 0xff, 0x10, 0x00, 0x00, 0x00,
  0x04, 0xeb, 0xff, 0xff, 0x08, 0x00, 0x00, 0x00,
  0x10, 0x00, 0x00, 0x00, 0x01, 0x00, 0x00, 0x00,
  0x80, 0xff, 0xff, 0xff, 0xff, 0xff, 0xff, 0xff,
  0x01, 0x00, 0x00, 0x00, 0x8d, 0xeb, 0x51, 0x3d,
  0x61, 0x00, 0x00, 0x00, 0x66, 0x75, 0x6e, 0x63,
  0x74, 0x69, 0x6f, 0x6e, 0x61, 0x6c, 0x5f, 0x34,
  0x5f, 0x31, 0x2f, 0x64, 0x65, 0x6e, 0x73, 0x65,
  0x5f, 0x31, 0x33, 0x5f, 0x31, 0x2f, 0x4d, 0x61,
  0x74, 0x4d, 0x75, 0x6c, 0x3b, 0x66, 0x75, 0x6e,
  0x63, 0x74, 0x69, 0x6f, 0x6e, 0x61, 0x6c, 0x5f,
  0x34, 0x5f, 0x31, 0x2f, 0x64, 0x65, 0x6e, 0x73,
  0x65, 0x5f, 0x31, 0x33, 0x5f, 0x31, 0x2f, 0x52,
  0x65, 0x6c, 0x75, 0x3b, 0x66, 0x75, 0x6e, 0x63,
  0x74, 0x69, 0x6f, 0x6e, 0x61, 0x6c, 0x5f, 0x34,
  0x5f, 0x31, 0x2f, 0x64, 0x65, 0x6e, 0x73, 0x65,
  0x5f, 0x31, 0x33, 0x5f, 0x31, 0x2f, 0x42, 0x69,
  0x61, 0x73, 0x41, 0x64, 0x64, 0x00, 0x00, 0x00,
  0x02, 0x00, 0x00, 0x00, 0x01, 0x00, 0x00, 0x00,
  0x10, 0x00, 0x00, 0x00, 0x1a, 0xf9, 0xff, 0xff,
  0x00, 0x00, 0x00, 0x01, 0x18, 0x00, 0x00, 0x00,
  0x20, 0x00, 0x00, 0x00, 0x3c, 0x00, 0x00, 0x00,
  0x18, 0x00, 0x00, 0x00, 0x00, 0x00, 0x00, 0x09,
  0x98, 0x00, 0x00, 0x00, 0x02, 0x00, 0x00, 0x00,
  0xff, 0xff, 0xff, 0xff, 0x20, 0x00, 0x00, 0x00,
  0xc4, 0xeb, 0xff, 0xff, 0x08, 0x00, 0x00, 0x00,
  0x10, 0x00, 0x00, 0x00, 0x01, 0x00, 0x00, 0x00,
  0x80, 0xff, 0xff, 0xff, 0xff, 0xff, 0xff, 0xff,
  0x01, 0x00, 0x00, 0x00, 0x5a, 0x94, 0x54, 0x3c,
  0x61, 0x00, 0x00, 0x00, 0x66, 0x75, 0x6e, 0x63,
  0x74, 0x69, 0x6f, 0x6e, 0x61, 0x6c, 0x5f, 0x34,
  0x5f, 0x31, 0x2f, 0x64, 0x65, 0x6e, 0x73, 0x65,
  0x5f, 0x31, 0x32, 0x5f, 0x31, 0x2f, 0x4d, 0x61,
  0x74, 0x4d, 0x75, 0x6c, 0x3b, 0x66, 0x75, 0x6e,
  0x63, 0x74, 0x69, 0x6f, 0x6e, 0x61, 0x6c, 0x5f,
  0x34, 0x5f, 0x31, 0x2f, 0x64, 0x65, 0x6e, 0x73,
  0x65, 0x5f, 0x31, 0x32, 0x5f, 0x31, 0x2f, 0x52,
  0x65, 0x6c, 0x75, 0x3b, 0x66, 0x75, 0x6e, 0x63,
  0x74, 0x69, 0x6f, 0x6e, 0x61, 0x6c, 0x5f, 0x34,
  0x5f, 0x31, 0x2f, 0x64, 0x65, 0x6e, 0x73, 0x65,
  0x5f, 0x31, 0x32, 0x5f, 0x31, 0x2f, 0x42, 0x69,
  0x61, 0x73, 0x41, 0x64, 0x64, 0x00, 0x00, 0x00,
  0x02, 0x00, 0x00, 0x00, 0x01, 0x00, 0x00, 0x00,
  0x20, 0x00, 0x00, 0x00, 0xda, 0xf9, 0xff, 0xff,
  0x00, 0x00, 0x00, 0x01, 0x18, 0x00, 0x00, 0x00,
  0x20, 0x00, 0x00, 0x00, 0x40, 0x00, 0x00, 0x00,
  0x17, 0x00, 0x00, 0x00, 0x00, 0x00, 0x00, 0x09,
  0x6c, 0x00, 0x00, 0x00, 0x02, 0x00, 0x00, 0x00,
  0xff, 0xff, 0xff, 0xff, 0x20, 0x00, 0x00, 0x00,
  0x84, 0xec, 0xff, 0xff, 0x08, 0x00, 0x00, 0x00,
  0x14, 0x00, 0x00, 0x00, 0x01, 0x00, 0x00, 0x00,
  0x80, 0xff, 0xff, 0xff, 0xff, 0xff, 0xff, 0xff,
  0x00, 0x00, 0x00, 0x00, 0x01, 0x00, 0x00, 0x00,
  0xba, 0x48, 0x9a, 0x3c, 0x30, 0x00, 0x00, 0x00,
  0x66, 0x75, 0x6e, 0x63, 0x74, 0x69, 0x6f, 0x6e,
  0x61, 0x6c, 0x5f, 0x34, 0x5f, 0x31, 0x2f, 0x67,
  0x6c, 0x6f, 0x62, 0x61, 0x6c, 0x5f, 0x61, 0x76,
  0x65, 0x72, 0x61, 0x67, 0x65, 0x5f, 0x70, 0x6f,
  0x6f, 0x6c, 0x69, 0x6e, 0x67, 0x31, 0x64, 0x5f,
  0x34, 0x5f, 0x31, 0x2f, 0x4d, 0x65, 0x61, 0x6e,
  0x00, 0x00, 0x00, 0x00, 0x02, 0x00, 0x00, 0x00,
  0x01, 0x00, 0x00, 0x00, 0x20, 0x00, 0x00, 0x00,
  0x6e, 0xfa, 0xff, 0xff, 0x00, 0x00, 0x00, 0x01,
  0x18, 0x00, 0x00, 0x00, 0x24, 0x00, 0x00, 0x00,
  0x44, 0x00, 0x00, 0x00, 0x16, 0x00, 0x00, 0x00,
  0x00, 0x00, 0x00, 0x09, 0xd0, 0x00, 0x00, 0x00,
  0x03, 0x00, 0x00, 0x00, 0xff, 0xff, 0xff, 0xff,
  0x41, 0x00, 0x00, 0x00, 0x20, 0x00, 0x00, 0x00,
  0x1c, 0xed, 0xff, 0xff, 0x08, 0x00, 0x00, 0x00,
  0x14, 0x00, 0x00, 0x00, 0x01, 0x00, 0x00, 0x00,
  0x80, 0xff, 0xff, 0xff, 0xff, 0xff, 0xff, 0xff,
  0x00, 0x00, 0x00, 0x00, 0x01, 0x00, 0x00, 0x00,
  0xe6, 0x57, 0x36, 0x3d, 0x90, 0x00, 0x00, 0x00,
  0x66, 0x75, 0x6e, 0x63, 0x74, 0x69, 0x6f, 0x6e,
  0x61, 0x6c, 0x5f, 0x34, 0x5f, 0x31, 0x2f, 0x63,
  0x6f, 0x6e, 0x76, 0x31, 0x64, 0x5f, 0x39, 0x5f,
  0x31, 0x2f, 0x52, 0x65, 0x6c, 0x75, 0x3b, 0x66,
  0x75, 0x6e, 0x63, 0x74, 0x69, 0x6f, 0x6e, 0x61,
  0x6c, 0x5f, 0x34, 0x5f, 0x31, 0x2f, 0x63, 0x6f,
  0x6e, 0x76, 0x31, 0x64, 0x5f, 0x39, 0x5f, 0x31,
  0x2f, 0x42, 0x69, 0x61, 0x73, 0x41, 0x64, 0x64,
  0x3b, 0x66, 0x75, 0x6e, 0x63, 0x74, 0x69, 0x6f,
  0x6e, 0x61, 0x6c, 0x5f, 0x34, 0x5f, 0x31, 0x2f,
  0x63, 0x6f, 0x6e, 0x76, 0x31, 0x64, 0x5f, 0x39,
  0x5f, 0x31, 0x2f, 0x63, 0x6f, 0x6e, 0x76, 0x6f,
  0x6c, 0x75, 0x74, 0x69, 0x6f, 0x6e, 0x2f, 0x53,
  0x71, 0x75, 0x65, 0x65, 0x7a, 0x65, 0x3b, 0x66,
  0x75, 0x6e, 0x63, 0x74, 0x69, 0x6f, 0x6e, 0x61,
  0x6c, 0x5f, 0x34, 0x5f, 0x31, 0x2f, 0x63, 0x6f,
  0x6e, 0x76, 0x31, 0x64, 0x5f, 0x39, 0x5f, 0x31,
  0x2f, 0x53, 0x71, 0x75, 0x65, 0x65, 0x7a, 0x65,
  0x00, 0x00, 0x00, 0x00, 0x03, 0x00, 0x00, 0x00,
  0x01, 0x00, 0x00, 0x00, 0x41, 0x00, 0x00, 0x00,
  0x20, 0x00, 0x00, 0x00, 0x6a, 0xfb, 0xff, 0xff,
  0x00, 0x00, 0x00, 0x01, 0x18, 0x00, 0x00, 0x00,
  0x28, 0x00, 0x00, 0x00, 0x48, 0x00, 0x00, 0x00,
  0x15, 0x00, 0x00, 0x00, 0x00, 0x00, 0x00, 0x09,
  0xf8, 0x00, 0x00, 0x00, 0x04, 0x00, 0x00, 0x00,
  0xff, 0xff, 0xff, 0xff, 0x01, 0x00, 0x00, 0x00,
  0x41, 0x00, 0x00, 0x00, 0x20, 0x00, 0x00, 0x00,
  0x1c, 0xee, 0xff, 0xff, 0x08, 0x00, 0x00, 0x00,
  0x14, 0x00, 0x00, 0x00, 0x01, 0x00, 0x00, 0x00,
  0x80, 0xff, 0xff, 0xff, 0xff, 0xff, 0xff, 0xff,
  0x00, 0x00, 0x00, 0x00, 0x01, 0x00, 0x00, 0x00,
  0xe6, 0x57, 0x36, 0x3d, 0xb6, 0x00, 0x00, 0x00,
  0x66, 0x75, 0x6e, 0x63, 0x74, 0x69, 0x6f, 0x6e,
  0x61, 0x6c, 0x5f, 0x34, 0x5f, 0x31, 0x2f, 0x63,
  0x6f, 0x6e, 0x76, 0x31, 0x64, 0x5f, 0x39, 0x5f,
  0x31, 0x2f, 0x52, 0x65, 0x6c, 0x75, 0x3b, 0x66,
  0x75, 0x6e, 0x63, 0x74, 0x69, 0x6f, 0x6e, 0x61,
  0x6c, 0x5f, 0x34, 0x5f, 0x31, 0x2f, 0x63, 0x6f,
  0x6e, 0x76, 0x31, 0x64, 0x5f, 0x39, 0x5f, 0x31,
  0x2f, 0x42, 0x69, 0x61, 0x73, 0x41, 0x64, 0x64,
  0x3b, 0x66, 0x75, 0x6e, 0x63, 0x74, 0x69, 0x6f,
  0x6e, 0x61, 0x6c, 0x5f, 0x34, 0x5f, 0x31, 0x2f,
  0x63, 0x6f, 0x6e, 0x76, 0x31, 0x64, 0x5f, 0x39,
  0x5f, 0x31, 0x2f, 0x63, 0x6f, 0x6e, 0x76, 0x6f,
  0x6c, 0x75, 0x74, 0x69, 0x6f, 0x6e, 0x2f, 0x53,
  0x71, 0x75, 0x65, 0x65, 0x7a, 0x65, 0x3b, 0x66,
  0x75, 0x6e, 0x63, 0x74, 0x69, 0x6f, 0x6e, 0x61,
  0x6c, 0x5f, 0x34, 0x5f, 0x31, 0x2f, 0x63, 0x6f,
  0x6e, 0x76, 0x31, 0x64, 0x5f, 0x39, 0x5f, 0x31,
  0x2f, 0x53, 0x71, 0x75, 0x65, 0x65, 0x7a, 0x65,
  0x3b, 0x66, 0x75, 0x6e, 0x63, 0x74, 0x69, 0x6f,
  0x6e, 0x61, 0x6c, 0x5f, 0x34, 0x5f, 0x31, 0x2f,
  0x63, 0x6f, 0x6e, 0x76, 0x31, 0x64, 0x5f, 0x39,
  0x5f, 0x31, 0x2f, 0x63, 0x6f, 0x6e, 0x76, 0x6f,
  0x6c, 0x75, 0x74, 0x69, 0x6f, 0x6e, 0x00, 0x00,
  0x04, 0x00, 0x00, 0x00, 0x01, 0x00, 0x00, 0x00,
  0x01, 0x00, 0x00, 0x00, 0x41, 0x00, 0x00, 0x00,
  0x20, 0x00, 0x00, 0x00, 0x92, 0xfc, 0xff, 0xff,
  0x00, 0x00, 0x00, 0x01, 0x18, 0x00, 0x00, 0x00,
  0x28, 0x00, 0x00, 0x00, 0x48, 0x00, 0x00, 0x00,
  0x14, 0x00, 0x00, 0x00, 0x00, 0x00, 0x00, 0x09,
  0x74, 0x00, 0x00, 0x00, 0x04, 0x00, 0x00, 0x00,
  0xff, 0xff, 0xff, 0xff, 0x01, 0x00, 0x00, 0x00,
  0x41, 0x00, 0x00, 0x00, 0x18, 0x00, 0x00, 0x00,
  0x44, 0xef, 0xff, 0xff, 0x08, 0x00, 0x00, 0x00,
  0x14, 0x00, 0x00, 0x00, 0x01, 0x00, 0x00, 0x00,
  0x80, 0xff, 0xff, 0xff, 0xff, 0xff, 0xff, 0xff,
  0x00, 0x00, 0x00, 0x00, 0x01, 0x00, 0x00, 0x00,
  0xf2, 0x1c, 0x3c, 0x3d, 0x30, 0x00, 0x00, 0x00,
  0x66, 0x75, 0x6e, 0x63, 0x74, 0x69, 0x6f, 0x6e,
  0x61, 0x6c, 0x5f, 0x34, 0x5f, 0x31, 0x2f, 0x63,
  0x6f, 0x6e, 0x76, 0x31, 0x64, 0x5f, 0x39, 0x5f,
  0x31, 0x2f, 0x63, 0x6f, 0x6e, 0x76, 0x6f, 0x6c,
  0x75, 0x74, 0x69, 0x6f, 0x6e, 0x2f, 0x45, 0x78,
  0x70, 0x61, 0x6e, 0x64, 0x44, 0x69, 0x6d, 0x73,
  0x00, 0x00, 0x00, 0x00, 0x04, 0x00, 0x00, 0x00,
  0x01, 0x00, 0x00, 0x00, 0x01, 0x00, 0x00, 0x00,
  0x41, 0x00, 0x00, 0x00, 0x18, 0x00, 0x00, 0x00,
  0x36, 0xfd, 0xff, 0xff, 0x00, 0x00, 0x00, 0x01,
  0x18, 0x00, 0x00, 0x00, 0x24, 0x00, 0x00, 0x00,
  0x44, 0x00, 0x00, 0x00, 0x13, 0x00, 0x00, 0x00,
  0x00, 0x00, 0x00, 0x09, 0xd0, 0x00, 0x00, 0x00,
  0x03, 0x00, 0x00, 0x00, 0xff, 0xff, 0xff, 0xff,
  0x41, 0x00, 0x00, 0x00, 0x18, 0x00, 0x00, 0x00,
  0xe4, 0xef, 0xff, 0xff, 0x08, 0x00, 0x00, 0x00,
  0x14, 0x00, 0x00, 0x00, 0x01, 0x00, 0x00, 0x00,
  0x80, 0xff, 0xff, 0xff, 0xff, 0xff, 0xff, 0xff,
  0x00, 0x00, 0x00, 0x00, 0x01, 0x00, 0x00, 0x00,
  0xf2, 0x1c, 0x3c, 0x3d, 0x90, 0x00, 0x00, 0x00,
  0x66, 0x75, 0x6e, 0x63, 0x74, 0x69, 0x6f, 0x6e,
  0x61, 0x6c, 0x5f, 0x34, 0x5f, 0x31, 0x2f, 0x63,
  0x6f, 0x6e, 0x76, 0x31, 0x64, 0x5f, 0x38, 0x5f,
  0x31, 0x2f, 0x52, 0x65, 0x6c, 0x75, 0x3b, 0x66,
  0x75, 0x6e, 0x63, 0x74, 0x69, 0x6f, 0x6e, 0x61,
  0x6c, 0x5f, 0x34, 0x5f, 0x31, 0x2f, 0x63, 0x6f,
  0x6e, 0x76, 0x31, 0x64, 0x5f, 0x38, 0x5f, 0x31,
  0x2f, 0x42, 0x69, 0x61, 0x73, 0x41, 0x64, 0x64,
  0x3b, 0x66, 0x75, 0x6e, 0x63, 0x74, 0x69, 0x6f,
  0x6e, 0x61, 0x6c, 0x5f, 0x34, 0x5f, 0x31, 0x2f,
  0x63, 0x6f, 0x6e, 0x76, 0x31, 0x64, 0x5f, 0x38,
  0x5f, 0x31, 0x2f, 0x63, 0x6f, 0x6e, 0x76, 0x6f,
  0x6c, 0x75, 0x74, 0x69, 0x6f, 0x6e, 0x2f, 0x53,
  0x71, 0x75, 0x65, 0x65, 0x7a, 0x65, 0x3b, 0x66,
  0x75, 0x6e, 0x63, 0x74, 0x69, 0x6f, 0x6e, 0x61,
  0x6c, 0x5f, 0x34, 0x5f, 0x31, 0x2f, 0x63, 0x6f,
  0x6e, 0x76, 0x31, 0x64, 0x5f, 0x38, 0x5f, 0x31,
  0x2f, 0x53, 0x71, 0x75, 0x65, 0x65, 0x7a, 0x65,
  0x00, 0x00, 0x00, 0x00, 0x03, 0x00, 0x00, 0x00,
  0x01, 0x00, 0x00, 0x00, 0x41, 0x00, 0x00, 0x00,
  0x18, 0x00, 0x00, 0x00, 0x32, 0xfe, 0xff, 0xff,
  0x00, 0x00, 0x00, 0x01, 0x18, 0x00, 0x00, 0x00,
  0x28, 0x00, 0x00, 0x00, 0x48, 0x00, 0x00, 0x00,
  0x12, 0x00, 0x00, 0x00, 0x00, 0x00, 0x00, 0x09,
  0xf8, 0x00, 0x00, 0x00, 0x04, 0x00, 0x00, 0x00,
  0xff, 0xff, 0xff, 0xff, 0x01, 0x00, 0x00, 0x00,
  0x41, 0x00, 0x00, 0x00, 0x18, 0x00, 0x00, 0x00,
  0xe4, 0xf0, 0xff, 0xff, 0x08, 0x00, 0x00, 0x00,
  0x14, 0x00, 0x00, 0x00, 0x01, 0x00, 0x00, 0x00,
  0x80, 0xff, 0xff, 0xff, 0xff, 0xff, 0xff, 0xff,
  0x00, 0x00, 0x00, 0x00, 0x01, 0x00, 0x00, 0x00,
  0xf2, 0x1c, 0x3c, 0x3d, 0xb6, 0x00, 0x00, 0x00,
  0x66, 0x75, 0x6e, 0x63, 0x74, 0x69, 0x6f, 0x6e,
  0x61, 0x6c, 0x5f, 0x34, 0x5f, 0x31, 0x2f, 0x63,
  0x6f, 0x6e, 0x76, 0x31, 0x64, 0x5f, 0x38, 0x5f,
  0x31, 0x2f, 0x52, 0x65, 0x6c, 0x75, 0x3b, 0x66,
  0x75, 0x6e, 0x63, 0x74, 0x69, 0x6f, 0x6e, 0x61,
  0x6c, 0x5f, 0x34, 0x5f, 0x31, 0x2f, 0x63, 0x6f,
  0x6e, 0x76, 0x31, 0x64, 0x5f, 0x38, 0x5f, 0x31,
  0x2f, 0x42, 0x69, 0x61, 0x73, 0x41, 0x64, 0x64,
  0x3b, 0x66, 0x75, 0x6e, 0x63, 0x74, 0x69, 0x6f,
  0x6e, 0x61, 0x6c, 0x5f, 0x34, 0x5f, 0x31, 0x2f,
  0x63, 0x6f, 0x6e, 0x76, 0x31, 0x64, 0x5f, 0x38,
  0x5f, 0x31, 0x2f, 0x63, 0x6f, 0x6e, 0x76, 0x6f,
  0x6c, 0x75, 0x74, 0x69, 0x6f, 0x6e, 0x2f, 0x53,
  0x71, 0x75, 0x65, 0x65, 0x7a, 0x65, 0x3b, 0x66,
  0x75, 0x6e, 0x63, 0x74, 0x69, 0x6f, 0x6e, 0x61,
  0x6c, 0x5f, 0x34, 0x5f, 0x31, 0x2f, 0x63, 0x6f,
  0x6e, 0x76, 0x31, 0x64, 0x5f, 0x38, 0x5f, 0x31,
  0x2f, 0x53, 0x71, 0x75, 0x65, 0x65, 0x7a, 0x65,
  0x3b, 0x66, 0x75, 0x6e, 0x63, 0x74, 0x69, 0x6f,
  0x6e, 0x61, 0x6c, 0x5f, 0x34, 0x5f, 0x31, 0x2f,
  0x63, 0x6f, 0x6e, 0x76, 0x31, 0x64, 0x5f, 0x38,
  0x5f, 0x31, 0x2f, 0x63, 0x6f, 0x6e, 0x76, 0x6f,
  0x6c, 0x75, 0x74, 0x69, 0x6f, 0x6e, 0x00, 0x00,
  0x04, 0x00, 0x00, 0x00, 0x01, 0x00, 0x00, 0x00,
  0x01, 0x00, 0x00, 0x00, 0x41, 0x00, 0x00, 0x00,
  0x18, 0x00, 0x00, 0x00, 0x5a, 0xff, 0xff, 0xff,
  0x00, 0x00, 0x00, 0x01, 0x18, 0x00, 0x00, 0x00,
  0x28, 0x00, 0x00, 0x00, 0x48, 0x00, 0x00, 0x00,
  0x11, 0x00, 0x00, 0x00, 0x00, 0x00, 0x00, 0x09,
  0x74, 0x00, 0x00, 0x00, 0x04, 0x00, 0x00, 0x00,
  0xff, 0xff, 0xff, 0xff, 0x01, 0x00, 0x00, 0x00,
  0x41, 0x00, 0x00, 0x00, 0x06, 0x00, 0x00, 0x00,
  0x0c, 0xf2, 0xff, 0xff, 0x08, 0x00, 0x00, 0x00,
  0x14, 0x00, 0x00, 0x00, 0x01, 0x00, 0x00, 0x00,
  0xff, 0xff, 0xff, 0xff, 0xff, 0xff, 0xff, 0xff,
  0x00, 0x00, 0x00, 0x00, 0x01, 0x00, 0x00, 0x00,
  0x6c, 0xfe, 0xa5, 0x3d, 0x30, 0x00, 0x00, 0x00,
  0x66, 0x75, 0x6e, 0x63, 0x74, 0x69, 0x6f, 0x6e,
  0x61, 0x6c, 0x5f, 0x34, 0x5f, 0x31, 0x2f, 0x63,
  0x6f, 0x6e, 0x76, 0x31, 0x64, 0x5f, 0x38, 0x5f,
  0x31, 0x2f, 0x63, 0x6f, 0x6e, 0x76, 0x6f, 0x6c,
  0x75, 0x74, 0x69, 0x6f, 0x6e, 0x2f, 0x45, 0x78,
  0x70, 0x61, 0x6e, 0x64, 0x44, 0x69, 0x6d, 0x73,
  0x00, 0x00, 0x00, 0x00, 0x04, 0x00, 0x00, 0x00,
  0x01, 0x00, 0x00, 0x00, 0x01, 0x00, 0x00, 0x00,
  0x41, 0x00, 0x00, 0x00, 0x06, 0x00, 0x00, 0x00,
  0x00, 0x00, 0x16, 0x00, 0x20, 0x00, 0x1c, 0x00,
  0x1b, 0x00, 0x14, 0x00, 0x10, 0x00, 0x0c, 0x00,
  0x00, 0x00, 0x00, 0x00, 0x08, 0x00, 0x07, 0x00,
  0x16, 0x00, 0x00, 0x00, 0x00, 0x00, 0x00, 0x01,
  0x18, 0x00, 0x00, 0x00, 0x24, 0x00, 0x00, 0x00,
  0x40, 0x00, 0x00, 0x00, 0x10, 0x00, 0x00, 0x00,
  0x00, 0x00, 0x00, 0x09, 0x48, 0x00, 0x00, 0x00,
  0x03, 0x00, 0x00, 0x00, 0xff, 0xff, 0xff, 0xff,
  0x41, 0x00, 0x00, 0x00, 0x06, 0x00, 0x00, 0x00,
  0xc4, 0xf2, 0xff, 0xff, 0x08, 0x00, 0x00, 0x00,
  0x10, 0x00, 0x00, 0x00, 0x01, 0x00, 0x00, 0x00,
  0xff, 0xff, 0xff, 0xff, 0xff, 0xff, 0xff, 0xff,
  0x01, 0x00, 0x00, 0x00, 0x6c, 0xfe, 0xa5, 0x3d,
  0x0c, 0x00, 0x00, 0x00, 0x74, 0x66, 0x6c, 0x2e,
  0x71, 0x75, 0x61, 0x6e, 0x74, 0x69, 0x7a, 0x65,
  0x00, 0x00, 0x00, 0x00, 0x03, 0x00, 0x00, 0x00,
  0x01, 0x00, 0x00, 0x00, 0x41, 0x00, 0x00, 0x00,
  0x06, 0x00, 0x00, 0x00, 0xfe, 0xf1, 0xff, 0xff,
  0x00, 0x00, 0x00, 0x01, 0x14, 0x00, 0x00, 0x00,
  0x48, 0x01, 0x00, 0x00, 0x0f, 0x00, 0x00, 0x00,
  0x00, 0x00, 0x00, 0x09, 0x54, 0x01, 0x00, 0x00,
  0x24, 0xf3, 0xff, 0xff, 0x08, 0x00, 0x00, 0x00,
  0xcc, 0x00, 0x00, 0x00, 0x18, 0x00, 0x00, 0x00,
  0x00, 0x00, 0x00, 0x00, 0x00, 0x00, 0x00, 0x00,
  0x00, 0x00, 0x00, 0x00, 0x00, 0x00, 0x00, 0x00,
  0x00, 0x00, 0x00, 0x00, 0x00, 0x00, 0x00, 0x00,
  0x00, 0x00, 0x00, 0x00, 0x00, 0x00, 0x00, 0x00,
  0x00, 0x00, 0x00, 0x00, 0x00, 0x00, 0x00, 0x00,
  0x00, 0x00, 0x00, 0x00, 0x00, 0x00, 0x00, 0x00,
  0x00, 0x00, 0x00, 0x00, 0x00, 0x00, 0x00, 0x00,
  0x00, 0x00, 0x00, 0x00, 0x00, 0x00, 0x00, 0x00,
  0x00, 0x00, 0x00, 0x00, 0x00, 0x00, 0x00, 0x00,
  0x00, 0x00, 0x00, 0x00, 0x00, 0x00, 0x00, 0x00,
  0x00, 0x00, 0x00, 0x00, 0x00, 0x00, 0x00, 0x00,
  0x00, 0x00, 0x00, 0x00, 0x00, 0x00, 0x00, 0x00,
  0x00, 0x00, 0x00, 0x00, 0x00, 0x00, 0x00, 0x00,
  0x00, 0x00, 0x00, 0x00, 0x00, 0x00, 0x00, 0x00,
  0x00, 0x00, 0x00, 0x00, 0x00, 0x00, 0x00, 0x00,
  0x00, 0x00, 0x00, 0x00, 0x00, 0x00, 0x00, 0x00,
  0x00, 0x00, 0x00, 0x00, 0x00, 0x00, 0x00, 0x00,
  0x00, 0x00, 0x00, 0x00, 0x00, 0x00, 0x00, 0x00,
  0x00, 0x00, 0x00, 0x00, 0x00, 0x00, 0x00, 0x00,
  0x00, 0x00, 0x00, 0x00, 0x00, 0x00, 0x00, 0x00,
  0x00, 0x00, 0x00, 0x00, 0x00, 0x00, 0x00, 0x00,
  0x00, 0x00, 0x00, 0x00, 0x00, 0x00, 0x00, 0x00,
  0x00, 0x00, 0x00, 0x00, 0x00, 0x00, 0x00, 0x00,
  0x00, 0x00, 0x00, 0x00, 0x00, 0x00, 0x00, 0x00,
  0x00, 0x00, 0x00, 0x00, 0x18, 0x00, 0x00, 0x00,
  0x14, 0xe3, 0x0e, 0x3b, 0x06, 0x25, 0x48, 0x3b,
  0xd0, 0x81, 0x11, 0x3b, 0xc3, 0xca, 0x46, 0x3b,
  0xd2, 0xc6, 0x27, 0x3b, 0xb1, 0xc2, 0x53, 0x3b,
  0xd0, 0x4d, 0x43, 0x3b, 0xc6, 0xc1, 0x1a, 0x3b,
  0x1d, 0x60, 0x58, 0x3b, 0x64, 0xd4, 0x1b, 0x3b,
  0x7d, 0x1a, 0x30, 0x3b, 0x8c, 0xd5, 0x30, 0x3b,
  0xd5, 0xfb, 0x05, 0x3b, 0x0e, 0x6f, 0x47, 0x3b,
  0x98, 0x9c, 0x3c, 0x3b, 0x88, 0xe5, 0xeb, 0x3a,
  0x9e, 0x92, 0x3a, 0x3b, 0xd8, 0xbf, 0x50, 0x3b,
  0x3c, 0xc6, 0x44, 0x3b, 0xa4, 0xfb, 0x3e, 0x3b,
  0x19, 0xde, 0x2b, 0x3b, 0x56, 0x72, 0x21, 0x3b,
  0x65, 0x44, 0x1d, 0x3b, 0x88, 0x87, 0x1b, 0x3b,
  0x12, 0x00, 0x00, 0x00, 0x74, 0x66, 0x6c, 0x2e,
  0x70, 0x73, 0x65, 0x75, 0x64, 0x6f, 0x5f, 0x71,
  0x63, 0x6f, 0x6e, 0x73, 0x74, 0x39, 0x00, 0x00,
  0x04, 0x00, 0x00, 0x00, 0x18, 0x00, 0x00, 0x00,
  0x01, 0x00, 0x00, 0x00, 0x05, 0x00, 0x00, 0x00,
  0x06, 0x00, 0x00, 0x00, 0x7e, 0xf3, 0xff, 0xff,
  0x00, 0x00, 0x00, 0x01, 0x14, 0x00, 0x00, 0x00,
  0x44, 0x01, 0x00, 0x00, 0x0e, 0x00, 0x00, 0x00,
  0x00, 0x00, 0x00, 0x02, 0x50, 0x01, 0x00, 0x00,
  0xa4, 0xf4, 0xff, 0xff, 0x08, 0x00, 0x00, 0x00,
  0xc8, 0x00, 0x00, 0x00, 0x18, 0x00, 0x00, 0x00,
  0x00, 0x00, 0x00, 0x00, 0x00, 0x00, 0x00, 0x00,
  0x00, 0x00, 0x00, 0x00, 0x00, 0x00, 0x00, 0x00,
  0x00, 0x00, 0x00, 0x00, 0x00, 0x00, 0x00, 0x00,
  0x00, 0x00, 0x00, 0x00, 0x00, 0x00, 0x00, 0x00,
  0x00, 0x00, 0x00, 0x00, 0x00, 0x00, 0x00, 0x00,
  0x00, 0x00, 0x00, 0x00, 0x00, 0x00, 0x00, 0x00,
  0x00, 0x00, 0x00, 0x00, 0x00, 0x00, 0x00, 0x00,
  0x00, 0x00, 0x00, 0x00, 0x00, 0x00, 0x00, 0x00,
  0x00, 0x00, 0x00, 0x00, 0x00, 0x00, 0x00, 0x00,
  0x00, 0x00, 0x00, 0x00, 0x00, 0x00, 0x00, 0x00,
  0x00, 0x00, 0x00, 0x00, 0x00, 0x00, 0x00, 0x00,
  0x00, 0x00, 0x00, 0x00, 0x00, 0x00, 0x00, 0x00,
  0x00, 0x00, 0x00, 0x00, 0x00, 0x00, 0x00, 0x00,
  0x00, 0x00, 0x00, 0x00, 0x00, 0x00, 0x00, 0x00,
  0x00, 0x00, 0x00, 0x00, 0x00, 0x00, 0x00, 0x00,
  0x00, 0x00, 0x00, 0x00, 0x00, 0x00, 0x00, 0x00,
  0x00, 0x00, 0x00, 0x00, 0x00, 0x00, 0x00, 0x00,
  0x00, 0x00, 0x00, 0x00, 0x00, 0x00, 0x00, 0x00,
  0x00, 0x00, 0x00, 0x00, 0x00, 0x00, 0x00, 0x00,
  0x00, 0x00, 0x00, 0x00, 0x00, 0x00, 0x00, 0x00,
  0x00, 0x00, 0x00, 0x00, 0x00, 0x00, 0x00, 0x00,
  0x00, 0x00, 0x00, 0x00, 0x00, 0x00, 0x00, 0x00,
  0x00, 0x00, 0x00, 0x00, 0x00, 0x00, 0x00, 0x00,
  0x00, 0x00, 0x00, 0x00, 0x00, 0x00, 0x00, 0x00,
  0x18, 0x00, 0x00, 0x00, 0xbb, 0x4c, 0x39, 0x39,
  0xc6, 0xc6, 0x81, 0x39, 0x8e, 0xb2, 0x3c, 0x39,
  0x41, 0xe6, 0x80, 0x39, 0xc7, 0x93, 0x59, 0x39,
  0xf1, 0x4e, 0x89, 0x39, 0x81, 0x46, 0x7d, 0x39,
  0x64, 0xb1, 0x48, 0x39, 0xfd, 0x4c, 0x8c, 0x39,
  0x86, 0x15, 0x4a, 0x39, 0x2e, 0x60, 0x64, 0x39,
  0xc3, 0x52, 0x65, 0x39, 0xf1, 0xc0, 0x2d, 0x39,
  0xc8, 0x50, 0x81, 0x39, 0xc2, 0x98, 0x74, 0x39,
  0x62, 0xf5, 0x18, 0x39, 0xd8, 0xf3, 0x71, 0x39,
  0x1d, 0x5b, 0x87, 0x39, 0xa9, 0x2e, 0x7f, 0x39,
  0xfe, 0xab, 0x77, 0x39, 0xea, 0xe1, 0x5e, 0x39,
  0x4a, 0x5e, 0x51, 0x39, 0xc3, 0xf2, 0x4b, 0x39,
  0xd9, 0xb1, 0x49, 0x39, 0x12, 0x00, 0x00, 0x00,
  0x74, 0x66, 0x6c, 0x2e, 0x70, 0x73, 0x65, 0x75,
  0x64, 0x6f, 0x5f, 0x71, 0x63, 0x6f, 0x6e, 0x73,
  0x74, 0x38, 0x00, 0x00, 0x01, 0x00, 0x00, 0x00,
  0x18, 0x00, 0x00, 0x00, 0xee, 0xf4, 0xff, 0xff,
  0x00, 0x00, 0x00, 0x01, 0x14, 0x00, 0x00, 0x00,
  0xa8, 0x01, 0x00, 0x00, 0x0d, 0x00, 0x00, 0x00,
  0x00, 0x00, 0x00, 0x09, 0xb4, 0x01, 0x00, 0x00,
  0x14, 0xf6, 0xff, 0xff, 0x08, 0x00, 0x00, 0x00,
  0x0c, 0x01, 0x00, 0x00, 0x20, 0x00, 0x00, 0x00,
  0x00, 0x00, 0x00, 0x00, 0x00, 0x00, 0x00, 0x00,
  0x00, 0x00, 0x00, 0x00, 0x00, 0x00, 0x00, 0x00,
  0x00, 0x00, 0x00, 0x00, 0x00, 0x00, 0x00, 0x00,
  0x00, 0x00, 0x00, 0x00, 0x00, 0x00, 0x00, 0x00,
  0x00, 0x00, 0x00, 0x00, 0x00, 0x00, 0x00, 0x00,
  0x00, 0x00, 0x00, 0x00, 0x00, 0x00, 0x00, 0x00,
  0x00, 0x00, 0x00, 0x00, 0x00, 0x00, 0x00, 0x00,
  0x00, 0x00, 0x00, 0x00, 0x00, 0x00, 0x00, 0x00,
  0x00, 0x00, 0x00, 0x00, 0x00, 0x00, 0x00, 0x00,
  0x00, 0x00, 0x00, 0x00, 0x00, 0x00, 0x00, 0x00,
  0x00, 0x00, 0x00, 0x00, 0x00, 0x00, 0x00, 0x00,
  0x00, 0x00, 0x00, 0x00, 0x00, 0x00, 0x00, 0x00,
  0x00, 0x00, 0x00, 0x00, 0x00, 0x00, 0x00, 0x00,
  0x00, 0x00, 0x00, 0x00, 0x00, 0x00, 0x00, 0x00,
  0x00, 0x00, 0x00, 0x00, 0x00, 0x00, 0x00, 0x00,
  0x00, 0x00, 0x00, 0x00, 0x00, 0x00, 0x00, 0x00,
  0x00, 0x00, 0x00, 0x00, 0x00, 0x00, 0x00, 0x00,
  0x00, 0x00, 0x00, 0x00, 0x00, 0x00, 0x00, 0x00,
  0x00, 0x00, 0x00, 0x00, 0x00, 0x00, 0x00, 0x00,
  0x00, 0x00, 0x00, 0x00, 0x00, 0x00, 0x00, 0x00,
  0x00, 0x00, 0x00, 0x00, 0x00, 0x00, 0x00, 0x00,
  0x00, 0x00, 0x00, 0x00, 0x00, 0x00, 0x00, 0x00,
  0x00, 0x00, 0x00, 0x00, 0x00, 0x00, 0x00, 0x00,
  0x00, 0x00, 0x00, 0x00, 0x00, 0x00, 0x00, 0x00,
  0x00, 0x00, 0x00, 0x00, 0x00, 0x00, 0x00, 0x00,
  0x00, 0x00, 0x00, 0x00, 0x00, 0x00, 0x00, 0x00,
  0x00, 0x00, 0x00, 0x00, 0x00, 0x00, 0x00, 0x00,
  0x00, 0x00, 0x00, 0x00, 0x00, 0x00, 0x00, 0x00,
  0x00, 0x00, 0x00, 0x00, 0x00, 0x00, 0x00, 0x00,
  0x00, 0x00, 0x00, 0x00, 0x00, 0x00, 0x00, 0x00,
  0x00, 0x00, 0x00, 0x00, 0x00, 0x00, 0x00, 0x00,
  0x00, 0x00, 0x00, 0x00, 0x00, 0x00, 0x00, 0x00,
  0x00, 0x00, 0x00, 0x00, 0x20, 0x00, 0x00, 0x00,
  0x75, 0xb1, 0xda, 0x3b, 0xa3, 0xdb, 0x27, 0x3b,
  0xd4, 0xee, 0x59, 0x3b, 0x56, 0xa8, 0x3f, 0x3b,
  0xcc, 0xbd, 0x81, 0x3b, 0x76, 0x3b, 0x4f, 0x3b,
  0xba, 0xea, 0x2e, 0x3b, 0xaf, 0x7b, 0x28, 0x3b,
  0x65, 0xbb, 0x5c, 0x3b, 0x29, 0x6d, 0x45, 0x3b,
  0x51, 0xaa, 0x59, 0x3b, 0x3e, 0x67, 0xf7, 0x3a,
  0xd2, 0x60, 0xd9, 0x3a, 0x3e, 0x87, 0x4d, 0x3b,
  0x77, 0x77, 0x29, 0x3b, 0x4d, 0x57, 0x21, 0x3b,
  0xa7, 0x40, 0x4f, 0x3b, 0xd3, 0xba, 0x8f, 0x3b,
  0x54, 0x79, 0x58, 0x3b, 0xc7, 0x48, 0x38, 0x3b,
  0x17, 0x62, 0x2f, 0x3b, 0x65, 0xef, 0x8d, 0x3b,
  0x88, 0x4e, 0x38, 0x3b, 0x11, 0xad, 0x07, 0x3b,
  0x26, 0x2b, 0x44, 0x3b, 0xa8, 0x3c, 0x50, 0x3b,
  0xe0, 0xed, 0x8c, 0x3b, 0x56, 0x0d, 0x6c, 0x3b,
  0xc3, 0x3c, 0x41, 0x3b, 0x39, 0x2a, 0x45, 0x3b,
  0xd3, 0x8c, 0x3a, 0x3b, 0xd6, 0x62, 0x34, 0x3b,
  0x12, 0x00, 0x00, 0x00, 0x74, 0x66, 0x6c, 0x2e,
  0x70, 0x73, 0x65, 0x75, 0x64, 0x6f, 0x5f, 0x71,
  0x63, 0x6f, 0x6e, 0x73, 0x74, 0x37, 0x00, 0x00,
  0x04, 0x00, 0x00, 0x00, 0x20, 0x00, 0x00, 0x00,
  0x01, 0x00, 0x00, 0x00, 0x05, 0x00, 0x00, 0x00,
  0x18, 0x00, 0x00, 0x00, 0xce, 0xf6, 0xff, 0xff,
  0x00, 0x00, 0x00, 0x01, 0x14, 0x00, 0x00, 0x00,
  0xa4, 0x01, 0x00, 0x00, 0x0c, 0x00, 0x00, 0x00,
  0x00, 0x00, 0x00, 0x02, 0xb0, 0x01, 0x00, 0x00,
  0xf4, 0xf7, 0xff, 0xff, 0x08, 0x00, 0x00, 0x00,
  0x08, 0x01, 0x00, 0x00, 0x20, 0x00, 0x00, 0x00,
  0x00, 0x00, 0x00, 0x00, 0x00, 0x00, 0x00, 0x00,
  0x00, 0x00, 0x00, 0x00, 0x00, 0x00, 0x00, 0x00,
  0x00, 0x00, 0x00, 0x00, 0x00, 0x00, 0x00, 0x00,
  0x00, 0x00, 0x00, 0x00, 0x00, 0x00, 0x00, 0x00,
  0x00, 0x00, 0x00, 0x00, 0x00, 0x00, 0x00, 0x00,
  0x00, 0x00, 0x00, 0x00, 0x00, 0x00, 0x00, 0x00,
  0x00, 0x00, 0x00, 0x00, 0x00, 0x00, 0x00, 0x00,
  0x00, 0x00, 0x00, 0x00, 0x00, 0x00, 0x00, 0x00,
  0x00, 0x00, 0x00, 0x00, 0x00, 0x00, 0x00, 0x00,
  0x00, 0x00, 0x00, 0x00, 0x00, 0x00, 0x00, 0x00,
  0x00, 0x00, 0x00, 0x00, 0x00, 0x00, 0x00, 0x00,
  0x00, 0x00, 0x00, 0x00, 0x00, 0x00, 0x00, 0x00,
  0x00, 0x00, 0x00, 0x00, 0x00, 0x00, 0x00, 0x00,
  0x00, 0x00, 0x00, 0x00, 0x00, 0x00, 0x00, 0x00,
  0x00, 0x00, 0x00, 0x00, 0x00, 0x00, 0x00, 0x00,
  0x00, 0x00, 0x00, 0x00, 0x00, 0x00, 0x00, 0x00,
  0x00, 0x00, 0x00, 0x00, 0x00, 0x00, 0x00, 0x00,
  0x00, 0x00, 0x00, 0x00, 0x00, 0x00, 0x00, 0x00,
  0x00, 0x00, 0x00, 0x00, 0x00, 0x00, 0x00, 0x00,
  0x00, 0x00, 0x00, 0x00, 0x00, 0x00, 0x00, 0x00,
  0x00, 0x00, 0x00, 0x00, 0x00, 0x00, 0x00, 0x00,
  0x00, 0x00, 0x00, 0x00, 0x00, 0x00, 0x00, 0x00,
  0x00, 0x00, 0x00, 0x00, 0x00, 0x00, 0x00, 0x00,
  0x00, 0x00, 0x00, 0x00, 0x00, 0x00, 0x00, 0x00,
  0x00, 0x00, 0x00, 0x00, 0x00, 0x00, 0x00, 0x00,
  0x00, 0x00, 0x00, 0x00, 0x00, 0x00, 0x00, 0x00,
  0x00, 0x00, 0x00, 0x00, 0x00, 0x00, 0x00, 0x00,
  0x00, 0x00, 0x00, 0x00, 0x00, 0x00, 0x00, 0x00,
  0x00, 0x00, 0x00, 0x00, 0x00, 0x00, 0x00, 0x00,
  0x00, 0x00, 0x00, 0x00, 0x00, 0x00, 0x00, 0x00,
  0x00, 0x00, 0x00, 0x00, 0x00, 0x00, 0x00, 0x00,
  0x00, 0x00, 0x00, 0x00, 0x00, 0x00, 0x00, 0x00,
  0x20, 0x00, 0x00, 0x00, 0x0c, 0xb3, 0xa0, 0x39,
  0x8d, 0xb0, 0xf6, 0x38, 0x08, 0x24, 0x20, 0x39,
  0x4b, 0xd5, 0x0c, 0x39, 0x1a, 0xac, 0x3e, 0x39,
  0x19, 0x47, 0x18, 0x39, 0x28, 0x88, 0x00, 0x39,
  0xc3, 0x9b, 0xf7, 0x38, 0x93, 0x32, 0x22, 0x39,
  0x7d, 0x12, 0x11, 0x39, 0xb0, 0xf1, 0x1f, 0x39,
  0xcb, 0xcb, 0xb5, 0x38, 0xae, 0xbb, 0x9f, 0x38,
  0x8f, 0x06, 0x17, 0x39, 0xc9, 0x0d, 0xf9, 0x38,
  0xb5, 0x1c, 0xed, 0x38, 0xea, 0x4a, 0x18, 0x39,
  0xe7, 0x3a, 0x53, 0x39, 0x94, 0x11, 0x1f, 0x39,
  0x48, 0x6a, 0x07, 0x39, 0xdd, 0xdf, 0x00, 0x39,
  0xb5, 0x97, 0x50, 0x39, 0x83, 0x6e, 0x07, 0x39,
  0xdf, 0x64, 0xc7, 0x38, 0xde, 0x25, 0x10, 0x39,
  0x17, 0x04, 0x19, 0x39, 0x3f, 0x1d, 0x4f, 0x39,
  0x7c, 0x74, 0x2d, 0x39, 0x79, 0xfe, 0x0d, 0x39,
  0x4d, 0xe1, 0x10, 0x39, 0x83, 0x14, 0x09, 0x39,
  0xfa, 0x8c, 0x04, 0x39, 0x12, 0x00, 0x00, 0x00,
  0x74, 0x66, 0x6c, 0x2e, 0x70, 0x73, 0x65, 0x75,
  0x64, 0x6f, 0x5f, 0x71, 0x63, 0x6f, 0x6e, 0x73,
  0x74, 0x36, 0x00, 0x00, 0x01, 0x00, 0x00, 0x00,
  0x20, 0x00, 0x00, 0x00, 0x9e, 0xf8, 0xff, 0xff,
  0x00, 0x00, 0x00, 0x01, 0x14, 0x00, 0x00, 0x00,
  0xa8, 0x01, 0x00, 0x00, 0x0b, 0x00, 0x00, 0x00,
  0x00, 0x00, 0x00, 0x09, 0xb4, 0x01, 0x00, 0x00,
  0xc4, 0xf9, 0xff, 0xff, 0x08, 0x00, 0x00, 0x00,
  0x0c, 0x01, 0x00, 0x00, 0x20, 0x00, 0x00, 0x00,
  0x00, 0x00, 0x00, 0x00, 0x00, 0x00, 0x00, 0x00,
  0x00, 0x00, 0x00, 0x00, 0x00, 0x00, 0x00, 0x00,
  0x00, 0x00, 0x00, 0x00, 0x00, 0x00, 0x00, 0x00,
  0x00, 0x00, 0x00, 0x00, 0x00, 0x00, 0x00, 0x00,
  0x00, 0x00, 0x00, 0x00, 0x00, 0x00, 0x00, 0x00,
  0x00, 0x00, 0x00, 0x00, 0x00, 0x00, 0x00, 0x00,
  0x00, 0x00, 0x00, 0x00, 0x00, 0x00, 0x00, 0x00,
  0x00, 0x00, 0x00, 0x00, 0x00, 0x00, 0x00, 0x00,
  0x00, 0x00, 0x00, 0x00, 0x00, 0x00, 0x00, 0x00,
  0x00, 0x00, 0x00, 0x00, 0x00, 0x00, 0x00, 0x00,
  0x00, 0x00, 0x00, 0x00, 0x00, 0x00, 0x00, 0x00,
  0x00, 0x00, 0x00, 0x00, 0x00, 0x00, 0x00, 0x00,
  0x00, 0x00, 0x00, 0x00, 0x00, 0x00, 0x00, 0x00,
  0x00, 0x00, 0x00, 0x00, 0x00, 0x00, 0x00, 0x00,
  0x00, 0x00, 0x00, 0x00, 0x00, 0x00, 0x00, 0x00,
  0x00, 0x00, 0x00, 0x00, 0x00, 0x00, 0x00, 0x00,
  0x00, 0x00, 0x00, 0x00, 0x00, 0x00, 0x00, 0x00,
  0x00, 0x00, 0x00, 0x00, 0x00, 0x00, 0x00, 0x00,
  0x00, 0x00, 0x00, 0x00, 0x00, 0x00, 0x00, 0x00,
  0x00, 0x00, 0x00, 0x00, 0x00, 0x00, 0x00, 0x00,
  0x00, 0x00, 0x00, 0x00, 0x00, 0x00, 0x00, 0x00,
  0x00, 0x00, 0x00, 0x00, 0x00, 0x00, 0x00, 0x00,
  0x00, 0x00, 0x00, 0x00, 0x00, 0x00, 0x00, 0x00,
  0x00, 0x00, 0x00, 0x00, 0x00, 0x00, 0x00, 0x00,
  0x00, 0x00, 0x00, 0x00, 0x00, 0x00, 0x00, 0x00,
  0x00, 0x00, 0x00, 0x00, 0x00, 0x00, 0x00, 0x00,
  0x00, 0x00, 0x00, 0x00, 0x00, 0x00, 0x00, 0x00,
  0x00, 0x00, 0x00, 0x00, 0x00, 0x00, 0x00, 0x00,
  0x00, 0x00, 0x00, 0x00, 0x00, 0x00, 0x00, 0x00,
  0x00, 0x00, 0x00, 0x00, 0x00, 0x00, 0x00, 0x00,
  0x00, 0x00, 0x00, 0x00, 0x00, 0x00, 0x00, 0x00,
  0x00, 0x00, 0x00, 0x00, 0x00, 0x00, 0x00, 0x00,
  0x00, 0x00, 0x00, 0x00, 0x20, 0x00, 0x00, 0x00,
  0xea, 0x32, 0x64, 0x3b, 0x1f, 0x9a, 0x38, 0x3b,
  0xef, 0x65, 0x66, 0x3b, 0xd1, 0xdc, 0x77, 0x3b,
  0x52, 0xed, 0x7c, 0x3b, 0xa5, 0xb2, 0x86, 0x3b,
  0xd5, 0x0a, 0x49, 0x3b, 0x44, 0x64, 0x87, 0x3b,
  0x3d, 0xda, 0x5c, 0x3b, 0x6a, 0x71, 0x7f, 0x3b,
  0x32, 0x73, 0x61, 0x3b, 0x2f, 0x17, 0x6e, 0x3b,
  0x16, 0x32, 0x53, 0x3b, 0x4c, 0x8b, 0x93, 0x3b,
  0x42, 0x11, 0x42, 0x3b, 0xf0, 0xac, 0x3c, 0x3b,
  0xec, 0x8a, 0x8b, 0x3b, 0x7a, 0xf5, 0x51, 0x3b,
  0x1c, 0x4f, 0xa0, 0x3b, 0x86, 0xae, 0x3d, 0x3b,
  0x80, 0x60, 0x2d, 0x3b, 0x11, 0x47, 0x7a, 0x3b,
  0x07, 0x2a, 0x5c, 0x3b, 0xba, 0xf6, 0x81, 0x3b,
  0xaa, 0x0d, 0x50, 0x3b, 0x4e, 0xb1, 0x3c, 0x3b,
  0xa4, 0x8c, 0x4d, 0x3b, 0x9f, 0x91, 0x8a, 0x3b,
  0x74, 0x87, 0x89, 0x3b, 0xed, 0x82, 0x62, 0x3b,
  0xdc, 0x17, 0x74, 0x3b, 0xff, 0x6e, 0x63, 0x3b,
  0x12, 0x00, 0x00, 0x00, 0x74, 0x66, 0x6c, 0x2e,
  0x70, 0x73, 0x65, 0x75, 0x64, 0x6f, 0x5f, 0x71,
  0x63, 0x6f, 0x6e, 0x73, 0x74, 0x35, 0x00, 0x00,
  0x02, 0x00, 0x00, 0x00, 0x20, 0x00, 0x00, 0x00,
  0x20, 0x00, 0x00, 0x00, 0x76, 0xfa, 0xff, 0xff,
  0x00, 0x00, 0x00, 0x01, 0x14, 0x00, 0x00, 0x00,
  0xa4, 0x01, 0x00, 0x00, 0x0a, 0x00, 0x00, 0x00,
  0x00, 0x00, 0x00, 0x02, 0xb0, 0x01, 0x00, 0x00,
  0x9c, 0xfb, 0xff, 0xff, 0x08, 0x00, 0x00, 0x00,
  0x08, 0x01, 0x00, 0x00, 0x20, 0x00, 0x00, 0x00,
  0x00, 0x00, 0x00, 0x00, 0x00, 0x00, 0x00, 0x00,
  0x00, 0x00, 0x00, 0x00, 0x00, 0x00, 0x00, 0x00,
  0x00, 0x00, 0x00, 0x00, 0x00, 0x00, 0x00, 0x00,
  0x00, 0x00, 0x00, 0x00, 0x00, 0x00, 0x00, 0x00,
  0x00, 0x00, 0x00, 0x00, 0x00, 0x00, 0x00, 0x00,
  0x00, 0x00, 0x00, 0x00, 0x00, 0x00, 0x00, 0x00,
  0x00, 0x00, 0x00, 0x00, 0x00, 0x00, 0x00, 0x00,
  0x00, 0x00, 0x00, 0x00, 0x00, 0x00, 0x00, 0x00,
  0x00, 0x00, 0x00, 0x00, 0x00, 0x00, 0x00, 0x00,
  0x00, 0x00, 0x00, 0x00, 0x00, 0x00, 0x00, 0x00,
  0x00, 0x00, 0x00, 0x00, 0x00, 0x00, 0x00, 0x00,
  0x00, 0x00, 0x00, 0x00, 0x00, 0x00, 0x00, 0x00,
  0x00, 0x00, 0x00, 0x00, 0x00, 0x00, 0x00, 0x00,
  0x00, 0x00, 0x00, 0x00, 0x00, 0x00, 0x00, 0x00,
  0x00, 0x00, 0x00, 0x00, 0x00, 0x00, 0x00, 0x00,
  0x00, 0x00, 0x00, 0x00, 0x00, 0x00, 0x00, 0x00,
  0x00, 0x00, 0x00, 0x00, 0x00, 0x00, 0x00, 0x00,
  0x00, 0x00, 0x00, 0x00, 0x00, 0x00, 0x00, 0x00,
  0x00, 0x00, 0x00, 0x00, 0x00, 0x00, 0x00, 0x00,
  0x00, 0x00, 0x00, 0x00, 0x00, 0x00, 0x00, 0x00,
  0x00, 0x00, 0x00, 0x00, 0x00, 0x00, 0x00, 0x00,
  0x00, 0x00, 0x00, 0x00, 0x00, 0x00, 0x00, 0x00,
  0x00, 0x00, 0x00, 0x00, 0x00, 0x00, 0x00, 0x00,
  0x00, 0x00, 0x00, 0x00, 0x00, 0x00, 0x00, 0x00,
  0x00, 0x00, 0x00, 0x00, 0x00, 0x00, 0x00, 0x00,
  0x00, 0x00, 0x00, 0x00, 0x00, 0x00, 0x00, 0x00,
  0x00, 0x00, 0x00, 0x00, 0x00, 0x00, 0x00, 0x00,
  0x00, 0x00, 0x00, 0x00, 0x00, 0x00, 0x00, 0x00,
  0x00, 0x00, 0x00, 0x00, 0x00, 0x00, 0x00, 0x00,
  0x00, 0x00, 0x00, 0x00, 0x00, 0x00, 0x00, 0x00,
  0x00, 0x00, 0x00, 0x00, 0x00, 0x00, 0x00, 0x00,
  0x00, 0x00, 0x00, 0x00, 0x00, 0x00, 0x00, 0x00,
  0x20, 0x00, 0x00, 0x00, 0x75, 0x87, 0x89, 0x38,
  0x50, 0x82, 0x5e, 0x38, 0xc6, 0xda, 0x8a, 0x38,
  0x40, 0x61, 0x95, 0x38, 0x9e, 0x6e, 0x98, 0x38,
  0x77, 0x5b, 0xa2, 0x38, 0x42, 0x53, 0x72, 0x38,
  0x8f, 0x31, 0xa3, 0x38, 0x07, 0x1a, 0x85, 0x38,
  0xcb, 0xf2, 0x99, 0x38, 0x58, 0xdf, 0x87, 0x38,
  0x96, 0x7d, 0x8f, 0x38, 0x42, 0x90, 0x7e, 0x38,
  0x6c, 0xd7, 0xb1, 0x38, 0x07, 0xeb, 0x69, 0x38,
  0x44, 0x6b, 0x63, 0x38, 0x6d, 0x32, 0xa8, 0x38,
  0xa2, 0x12, 0x7d, 0x38, 0x43, 0x3a, 0xc1, 0x38,
  0xbf, 0xa1, 0x64, 0x38, 0x9c, 0xfa, 0x50, 0x38,
  0xda, 0xd5, 0x96, 0x38, 0xd4, 0xaf, 0x84, 0x38,
  0xaf, 0xa6, 0x9c, 0x38, 0xa7, 0xc6, 0x7a, 0x38,
  0x88, 0x70, 0x63, 0x38, 0xff, 0xc1, 0x77, 0x38,
  0xef, 0x05, 0xa7, 0x38, 0x1c, 0xc5, 0xa5, 0x38,
  0x1c, 0x83, 0x88, 0x38, 0xb2, 0x1b, 0x93, 0x38,
  0x62, 0x11, 0x89, 0x38, 0x12, 0x00, 0x00, 0x00,
  0x74, 0x66, 0x6c, 0x2e, 0x70, 0x73, 0x65, 0x75,
  0x64, 0x6f, 0x5f, 0x71, 0x63, 0x6f, 0x6e, 0x73,
  0x74, 0x34, 0x00, 0x00, 0x01, 0x00, 0x00, 0x00,
  0x20, 0x00, 0x00, 0x00, 0x46, 0xfc, 0xff, 0xff,
  0x00, 0x00, 0x00, 0x01, 0x14, 0x00, 0x00, 0x00,
  0xe8, 0x00, 0x00, 0x00, 0x09, 0x00, 0x00, 0x00,
  0x00, 0x00, 0x00, 0x09, 0xf4, 0x00, 0x00, 0x00,
  0x6c, 0xfd, 0xff, 0xff, 0x08, 0x00, 0x00, 0x00,
  0x8c, 0x00, 0x00, 0x00, 0x10, 0x00, 0x00, 0x00,
  0x00, 0x00, 0x00, 0x00, 0x00, 0x00, 0x00, 0x00,
  0x00, 0x00, 0x00, 0x00, 0x00, 0x00, 0x00, 0x00,
  0x00, 0x00, 0x00, 0x00, 0x00, 0x00, 0x00, 0x00,
  0x00, 0x00, 0x00, 0x00, 0x00, 0x00, 0x00, 0x00,
  0x00, 0x00, 0x00, 0x00, 0x00, 0x00, 0x00, 0x00,
  0x00, 0x00, 0x00, 0x00, 0x00, 0x00, 0x00, 0x00,
  0x00, 0x00, 0x00, 0x00, 0x00, 0x00, 0x00, 0x00,
  0x00, 0x00, 0x00, 0x00, 0x00, 0x00, 0x00, 0x00,
  0x00, 0x00, 0x00, 0x00, 0x00, 0x00, 0x00, 0x00,
  0x00, 0x00, 0x00, 0x00, 0x00, 0x00, 0x00, 0x00,
  0x00, 0x00, 0x00, 0x00, 0x00, 0x00, 0x00, 0x00,
  0x00, 0x00, 0x00, 0x00, 0x00, 0x00, 0x00, 0x00,
  0x00, 0x00, 0x00, 0x00, 0x00, 0x00, 0x00, 0x00,
  0x00, 0x00, 0x00, 0x00, 0x00, 0x00, 0x00, 0x00,
  0x00, 0x00, 0x00, 0x00, 0x00, 0x00, 0x00, 0x00,
  0x00, 0x00, 0x00, 0x00, 0x00, 0x00, 0x00, 0x00,
  0x00, 0x00, 0x00, 0x00, 0x10, 0x00, 0x00, 0x00,
  0x1e, 0x40, 0xf6, 0x3b, 0x01, 0x3d, 0x9b, 0x3b,
  0x0d, 0x78, 0xa5, 0x3b, 0xe9, 0x44, 0xd5, 0x3b,
  0x90, 0x03, 0xc0, 0x3b, 0xe2, 0xe0, 0xd4, 0x3b,
  0x19, 0xcb, 0x50, 0x3b, 0xda, 0x8c, 0x79, 0x3b,
  0xc9, 0x52, 0x9c, 0x3b, 0x67, 0x2d, 0x9e, 0x3b,
  0x6b, 0x71, 0x8d, 0x3b, 0xa4, 0xf8, 0x9d, 0x3b,
  0x74, 0xde, 0xb9, 0x3b, 0x63, 0x0b, 0xd8, 0x3b,
  0xa8, 0x72, 0xb7, 0x3b, 0x63, 0xae, 0x9a, 0x3b,
  0x12, 0x00, 0x00, 0x00, 0x74, 0x66, 0x6c, 0x2e,
  0x70, 0x73, 0x65, 0x75, 0x64, 0x6f, 0x5f, 0x71,
  0x63, 0x6f, 0x6e, 0x73, 0x74, 0x33, 0x00, 0x00,
  0x02, 0x00, 0x00, 0x00, 0x10, 0x00, 0x00, 0x00,
  0x20, 0x00, 0x00, 0x00, 0x5e, 0xfd, 0xff, 0xff,
  0x00, 0x00, 0x00, 0x01, 0x14, 0x00, 0x00, 0x00,
  0xe4, 0x00, 0x00, 0x00, 0x08, 0x00, 0x00, 0x00,
  0x00, 0x00, 0x00, 0x02, 0xf0, 0x00, 0x00, 0x00,
  0x84, 0xfe, 0xff, 0xff, 0x08, 0x00, 0x00, 0x00,
  0x88, 0x00, 0x00, 0x00, 0x10, 0x00, 0x00, 0x00,
  0x00, 0x00, 0x00, 0x00, 0x00, 0x00, 0x00, 0x00,
  0x00, 0x00, 0x00, 0x00, 0x00, 0x00, 0x00, 0x00,
  0x00, 0x00, 0x00, 0x00, 0x00, 0x00, 0x00, 0x00,
  0x00, 0x00, 0x00, 0x00, 0x00, 0x00, 0x00, 0x00,
  0x00, 0x00, 0x00, 0x00, 0x00, 0x00, 0x00, 0x00,
  0x00, 0x00, 0x00, 0x00, 0x00, 0x00, 0x00, 0x00,
  0x00, 0x00, 0x00, 0x00, 0x00, 0x00, 0x00, 0x00,
  0x00, 0x00, 0x00, 0x00, 0x00, 0x00, 0x00, 0x00,
  0x00, 0x00, 0x00, 0x00, 0x00, 0x00, 0x00, 0x00,
  0x00, 0x00, 0x00, 0x00, 0x00, 0x00, 0x00, 0x00,
  0x00, 0x00, 0x00, 0x00, 0x00, 0x00, 0x00, 0x00,
  0x00, 0x00, 0x00, 0x00, 0x00, 0x00, 0x00, 0x00,
  0x00, 0x00, 0x00, 0x00, 0x00, 0x00, 0x00, 0x00,
  0x00, 0x00, 0x00, 0x00, 0x00, 0x00, 0x00, 0x00,
  0x00, 0x00, 0x00, 0x00, 0x00, 0x00, 0x00, 0x00,
  0x00, 0x00, 0x00, 0x00, 0x00, 0x00, 0x00, 0x00,
  0x10, 0x00, 0x00, 0x00, 0xcc, 0x7b, 0xcc, 0x38,
  0x7b, 0xe8, 0x80, 0x38, 0x4e, 0x67, 0x89, 0x38,
  0xa8, 0x18, 0xb1, 0x38, 0x39, 0x72, 0x9f, 0x38,
  0x98, 0xc5, 0xb0, 0x38, 0x30, 0x61, 0x2d, 0x38,
  0x42, 0x39, 0x4f, 0x38, 0x25, 0xcf, 0x81, 0x38,
  0x43, 0x59, 0x83, 0x38, 0xc8, 0xe7, 0x6a, 0x38,
  0x73, 0x2d, 0x83, 0x38, 0xee, 0x57, 0x9a, 0x38,
  0xa1, 0x66, 0xb3, 0x38, 0x42, 0x55, 0x98, 0x38,
  0x0d, 0x72, 0x80, 0x38, 0x12, 0x00, 0x00, 0x00,
  0x74, 0x66, 0x6c, 0x2e, 0x70, 0x73, 0x65, 0x75,
  0x64, 0x6f, 0x5f, 0x71, 0x63, 0x6f, 0x6e, 0x73,
  0x74, 0x32, 0x00, 0x00, 0x01, 0x00, 0x00, 0x00,
  0x10, 0x00, 0x00, 0x00, 0x6e, 0xfe, 0xff, 0xff,
  0x00, 0x00, 0x00, 0x01, 0x14, 0x00, 0x00, 0x00,
  0x3c, 0x00, 0x00, 0x00, 0x07, 0x00, 0x00, 0x00,
  0x00, 0x00, 0x00, 0x09, 0x48, 0x00, 0x00, 0x00,
  0x94, 0xff, 0xff, 0xff, 0x08, 0x00, 0x00, 0x00,
  0x18, 0x00, 0x00, 0x00, 0x02, 0x00, 0x00, 0x00,
  0x00, 0x00, 0x00, 0x00, 0x00, 0x00, 0x00, 0x00,
  0x00, 0x00, 0x00, 0x00, 0x00, 0x00, 0x00, 0x00,
  0x02, 0x00, 0x00, 0x00, 0x53, 0x07, 0xd2, 0x3b,
  0x16, 0xee, 0xe8, 0x3b, 0x12, 0x00, 0x00, 0x00,
  0x74, 0x66, 0x6c, 0x2e, 0x70, 0x73, 0x65, 0x75,
  0x64, 0x6f, 0x5f, 0x71, 0x63, 0x6f, 0x6e, 0x73,
  0x74, 0x31, 0x00, 0x00, 0x02, 0x00, 0x00, 0x00,
  0x02, 0x00, 0x00, 0x00, 0x10, 0x00, 0x00, 0x00,
  0xda, 0xfe, 0xff, 0xff, 0x00, 0x00, 0x00, 0x01,
  0x20, 0x00, 0x00, 0x00, 0x48, 0x00, 0x00, 0x00,
  0x06, 0x00, 0x00, 0x00, 0x00, 0x00, 0x00, 0x02,
  0x54, 0x00, 0x00, 0x00, 0x0c, 0x00, 0x0c, 0x00,
  0x00, 0x00, 0x00, 0x00, 0x08, 0x00, 0x04, 0x00,
  0x0c, 0x00, 0x00, 0x00, 0x08, 0x00, 0x00, 0x00,
  0x18, 0x00, 0x00, 0x00, 0x02, 0x00, 0x00, 0x00,
  0x00, 0x00, 0x00, 0x00, 0x00, 0x00, 0x00, 0x00,
  0x00, 0x00, 0x00, 0x00, 0x00, 0x00, 0x00, 0x00,
  0x02, 0x00, 0x00, 0x00, 0x3b, 0x39, 0xac, 0x39,
  0xb3, 0x00, 0xbf, 0x39, 0x11, 0x00, 0x00, 0x00,
  0x74, 0x66, 0x6c, 0x2e, 0x70, 0x73, 0x65, 0x75,
  0x64, 0x6f, 0x5f, 0x71, 0x63, 0x6f, 0x6e, 0x73,
  0x74, 0x00, 0x00, 0x00, 0x01, 0x00, 0x00, 0x00,
  0x02, 0x00, 0x00, 0x00, 0x4e, 0xff, 0xff, 0xff,
  0x00, 0x00, 0x00, 0x01, 0x14, 0x00, 0x00, 0x00,
  0x14, 0x00, 0x00, 0x00, 0x05, 0x00, 0x00, 0x00,
  0x00, 0x00, 0x00, 0x02, 0x1c, 0x00, 0x00, 0x00,
  0xd8, 0xfe, 0xff, 0xff, 0x0f, 0x00, 0x00, 0x00,
  0x61, 0x72, 0x69, 0x74, 0x68, 0x2e, 0x63, 0x6f,
  0x6e, 0x73, 0x74, 0x61, 0x6e, 0x74, 0x33, 0x00,
  0x00, 0x00, 0x00, 0x00, 0x86, 0xff, 0xff, 0xff,
  0x00, 0x00, 0x00, 0x01, 0x14, 0x00, 0x00, 0x00,
  0x14, 0x00, 0x00, 0x00, 0x04, 0x00, 0x00, 0x00,
  0x00, 0x00, 0x00, 0x02, 0x1c, 0x00, 0x00, 0x00,
  0x10, 0xff, 0xff, 0xff, 0x0f, 0x00, 0x00, 0x00,
  0x61, 0x72, 0x69, 0x74, 0x68, 0x2e, 0x63, 0x6f,
  0x6e, 0x73, 0x74, 0x61, 0x6e, 0x74, 0x32, 0x00,
  0x01, 0x00, 0x00, 0x00, 0x03, 0x00, 0x00, 0x00,
  0xc2, 0xff, 0xff, 0xff, 0x00, 0x00, 0x00, 0x01,
  0x14, 0x00, 0x00, 0x00, 0x14, 0x00, 0x00, 0x00,
  0x03, 0x00, 0x00, 0x00, 0x00, 0x00, 0x00, 0x02,
  0x1c, 0x00, 0x00, 0x00, 0x4c, 0xff, 0xff, 0xff,
  0x0f, 0x00, 0x00, 0x00, 0x61, 0x72, 0x69, 0x74,
  0x68, 0x2e, 0x63, 0x6f, 0x6e, 0x73, 0x74, 0x61,
  0x6e, 0x74, 0x31, 0x00, 0x01, 0x00, 0x00, 0x00,
  0x03, 0x00, 0x00, 0x00, 0x00, 0x00, 0x16, 0x00,
  0x1c, 0x00, 0x18, 0x00, 0x17, 0x00, 0x10, 0x00,
  0x0c, 0x00, 0x08, 0x00, 0x00, 0x00, 0x00, 0x00,
  0x00, 0x00, 0x07, 0x00, 0x16, 0x00, 0x00, 0x00,
  0x00, 0x00, 0x00, 0x01, 0x14, 0x00, 0x00, 0x00,
  0x14, 0x00, 0x00, 0x00, 0x02, 0x00, 0x00, 0x00,
  0x00, 0x00, 0x00, 0x02, 0x1c, 0x00, 0x00, 0x00,
  0xa0, 0xff, 0xff, 0xff, 0x0e, 0x00, 0x00, 0x00,
  0x61, 0x72, 0x69, 0x74, 0x68, 0x2e, 0x63, 0x6f,
  0x6e, 0x73, 0x74, 0x61, 0x6e, 0x74, 0x00, 0x00,
  0x00, 0x00, 0x00, 0x00, 0x00, 0x00, 0x16, 0x00,
  0x1c, 0x00, 0x18, 0x00, 0x00, 0x00, 0x14, 0x00,
  0x10, 0x00, 0x0c, 0x00, 0x00, 0x00, 0x00, 0x00,
  0x08, 0x00, 0x07, 0x00, 0x16, 0x00, 0x00, 0x00,
  0x00, 0x00, 0x00, 0x01, 0x14, 0x00, 0x00, 0x00,
  0x24, 0x00, 0x00, 0x00, 0x24, 0x00, 0x00, 0x00,
  0x01, 0x00, 0x00, 0x00, 0x44, 0x00, 0x00, 0x00,
  0x03, 0x00, 0x00, 0x00, 0xff, 0xff, 0xff, 0xff,
  0x41, 0x00, 0x00, 0x00, 0x06, 0x00, 0x00, 0x00,
  0x04, 0x00, 0x04, 0x00, 0x04, 0x00, 0x00, 0x00,
  0x21, 0x00, 0x00, 0x00, 0x73, 0x65, 0x72, 0x76,
  0x69, 0x6e, 0x67, 0x5f, 0x64, 0x65, 0x66, 0x61,
  0x75, 0x6c, 0x74, 0x5f, 0x6b, 0x65, 0x72, 0x61,
  0x73, 0x5f, 0x74, 0x65, 0x6e, 0x73, 0x6f, 0x72,
  0x5f, 0x34, 0x34, 0x3a, 0x30, 0x00, 0x00, 0x00,
  0x03, 0x00, 0x00, 0x00, 0x01, 0x00, 0x00, 0x00,
  0x41, 0x00, 0x00, 0x00, 0x06, 0x00, 0x00, 0x00,
  0x08, 0x00, 0x00, 0x00, 0xa0, 0x00, 0x00, 0x00,
  0x84, 0x00, 0x00, 0x00, 0x70, 0x00, 0x00, 0x00,
  0x54, 0x00, 0x00, 0x00, 0x40, 0x00, 0x00, 0x00,
  0x2c, 0x00, 0x00, 0x00, 0x18, 0x00, 0x00, 0x00,
  0x04, 0x00, 0x00, 0x00, 0xb4, 0xff, 0xff, 0xff,
  0x06, 0x00, 0x00, 0x00, 0x02, 0x00, 0x00, 0x00,
  0x00, 0x00, 0x00, 0x06, 0xc4, 0xff, 0xff, 0xff,
  0x19, 0x00, 0x00, 0x00, 0x02, 0x00, 0x00, 0x00,
  0x00, 0x00, 0x00, 0x19, 0xd4, 0xff, 0xff, 0xff,
  0x09, 0x00, 0x00, 0x00, 0x04, 0x00, 0x00, 0x00,
  0x00, 0x00, 0x00, 0x09, 0xe4, 0xff, 0xff, 0xff,
  0x28, 0x00, 0x00, 0x00, 0x02, 0x00, 0x00, 0x00,
  0x00, 0x00, 0x00, 0x28, 0xcc, 0xff, 0xff, 0xff,
  0x16, 0x00, 0x00, 0x00, 0x00, 0x00, 0x00, 0x16,
  0x0c, 0x00, 0x10, 0x00, 0x0f, 0x00, 0x00, 0x00,
  0x08, 0x00, 0x04, 0x00, 0x0c, 0x00, 0x00, 0x00,
  0x03, 0x00, 0x00, 0x00, 0x03, 0x00, 0x00, 0x00,
  0x00, 0x00, 0x00, 0x03, 0xf4, 0xff, 0xff, 0xff,
  0x46, 0x00, 0x00, 0x00, 0x00, 0x00, 0x00, 0x46,
  0x0c, 0x00, 0x0c, 0x00, 0x0b, 0x00, 0x00, 0x00,
  0x00, 0x00, 0x04, 0x00, 0x0c, 0x00, 0x00, 0x00,
  0x72, 0x00, 0x00, 0x00, 0x00, 0x00, 0x00, 0x72
};
const unsigned int model_25hz_tflite_len = 14816;

#endif
